{
  "version": "1.0",
  "truncation": null,
  "padding": null,
  "added_tokens": [
    {
      "id": 0,
      "content": "<pad>",
      "single_word": false,
      "lstrip": false,
      "rstrip": false,
      "normalized": false,
      "special": true
    },
    {
      "id": 1,
      "content": "<bos>",
      "single_word": false,
      "lstrip": false,
      "rstrip": false,
      "normalized": false,
      "special": true
    },
    {
      "id": 2,
      "content": "<eos>",
      "single_word": false,
      "lstrip": false,
      "rstrip": false,
      "normalized": false,
      "special": true
    },
    {
      "id": 3,
      "content": "<unk>",
      "single_word": false,
      "lstrip": false,
      "rstrip": false,
      "normalized": false,
      "special": true
    },
    {
      "id": 4,
      "content": "[CALL: calendar]",
      "single_word": false,
      "lstrip": false,
      "rstrip": false,
      "normalized": false,
      "special": true
    },
    {
      "id": 5,
      "content": "[CALL: screen]",
      "single_word": false,
      "lstrip": false,
      "rstrip": false,
      "normalized": false,
      "special": true
    },
    {
      "id": 6,
      "content": "[CALL: reminders]",
      "single_word": false,
      "lstrip": false,
      "rstrip": false,
      "normalized": false,
      "special": true
    },
    {
      "id": 7,
      "content": "[CALL: notes]",
      "single_word": false,
      "lstrip": false,
      "rstrip": false,
      "normalized": false,
      "special": true
    },
    {
      "id": 8,
      "content": "[CALL: spotify]",
      "single_word": false,
      "lstrip": false,
      "rstrip": false,
      "normalized": false,
      "special": true
    },
    {
      "id": 9,
      "content": "[CALL: launcher]",
      "single_word": false,
      "lstrip": false,
      "rstrip": false,
      "normalized": false,
      "special": true
    },
    {
      "id": 10,
      "content": "[CALL: weather]",
      "single_word": false,
      "lstrip": false,
      "rstrip": false,
      "normalized": false,
      "special": true
    },
    {
      "id": 11,
      "content": "[CALL: news]",
      "single_word": false,
      "lstrip": false,
      "rstrip": false,
      "normalized": false,
      "special": true
    },
    {
      "id": 12,
      "content": "[CALL: stocks]",
      "single_word": false,
      "lstrip": false,
      "rstrip": false,
      "normalized": false,
      "special": true
    },
    {
      "id": 13,
      "content": "[RESULT]",
      "single_word": false,
      "lstrip": false,
      "rstrip": false,
      "normalized": false,
      "special": true
    },
    {
      "id": 14,
      "content": "[/RESULT]",
      "single_word": false,
      "lstrip": false,
      "rstrip": false,
      "normalized": false,
      "special": true
    }
  ],
  "normalizer": null,
  "pre_tokenizer": {
    "type": "ByteLevel",
    "add_prefix_space": false,
    "trim_offsets": true,
    "use_regex": true
  },
  "post_processor": null,
  "decoder": {
    "type": "ByteLevel",
    "add_prefix_space": true,
    "trim_offsets": true,
    "use_regex": true
  },
  "model": {
    "type": "BPE",
    "dropout": null,
    "unk_token": "<unk>",
    "continuing_subword_prefix": null,
    "end_of_word_suffix": null,
    "fuse_unk": false,
    "byte_fallback": false,
    "ignore_merges": false,
    "vocab": {
      "<pad>": 0,
      "<bos>": 1,
      "<eos>": 2,
      "<unk>": 3,
      "[CALL: calendar]": 4,
      "[CALL: screen]": 5,
      "[CALL: reminders]": 6,
      "[CALL: notes]": 7,
      "[CALL: spotify]": 8,
      "[CALL: launcher]": 9,
      "[CALL: weather]": 10,
      "[CALL: news]": 11,
      "[CALL: stocks]": 12,
      "[RESULT]": 13,
      "[/RESULT]": 14,
      "!": 15,
      "\"": 16,
      "#": 17,
      "$": 18,
      "%": 19,
      "&": 20,
      "'": 21,
      "(": 22,
      ")": 23,
      "*": 24,
      "+": 25,
      ",": 26,
      "-": 27,
      ".": 28,
      "/": 29,
      "0": 30,
      "1": 31,
      "2": 32,
      "3": 33,
      "4": 34,
      "5": 35,
      "6": 36,
      "7": 37,
      "8": 38,
      "9": 39,
      ":": 40,
      ";": 41,
      "<": 42,
      "=": 43,
      ">": 44,
      "?": 45,
      "@": 46,
      "A": 47,
      "B": 48,
      "C": 49,
      "D": 50,
      "E": 51,
      "F": 52,
      "G": 53,
      "H": 54,
      "I": 55,
      "J": 56,
      "K": 57,
      "L": 58,
      "M": 59,
      "N": 60,
      "O": 61,
      "P": 62,
      "Q": 63,
      "R": 64,
      "S": 65,
      "T": 66,
      "U": 67,
      "V": 68,
      "W": 69,
      "X": 70,
      "Y": 71,
      "Z": 72,
      "[": 73,
      "\\": 74,
      "]": 75,
      "^": 76,
      "_": 77,
      "`": 78,
      "a": 79,
      "b": 80,
      "c": 81,
      "d": 82,
      "e": 83,
      "f": 84,
      "g": 85,
      "h": 86,
      "i": 87,
      "j": 88,
      "k": 89,
      "l": 90,
      "m": 91,
      "n": 92,
      "o": 93,
      "p": 94,
      "q": 95,
      "r": 96,
      "s": 97,
      "t": 98,
      "u": 99,
      "v": 100,
      "w": 101,
      "x": 102,
      "y": 103,
      "z": 104,
      "{": 105,
      "|": 106,
      "}": 107,
      "~": 108,
      "¡": 109,
      "¢": 110,
      "£": 111,
      "¤": 112,
      "¥": 113,
      "¦": 114,
      "§": 115,
      "¨": 116,
      "©": 117,
      "ª": 118,
      "«": 119,
      "¬": 120,
      "®": 121,
      "¯": 122,
      "°": 123,
      "±": 124,
      "²": 125,
      "³": 126,
      "´": 127,
      "µ": 128,
      "¶": 129,
      "·": 130,
      "¸": 131,
      "¹": 132,
      "º": 133,
      "»": 134,
      "¼": 135,
      "½": 136,
      "¾": 137,
      "¿": 138,
      "À": 139,
      "Á": 140,
      "Â": 141,
      "Ã": 142,
      "Ä": 143,
      "Å": 144,
      "Æ": 145,
      "Ç": 146,
      "È": 147,
      "É": 148,
      "Ê": 149,
      "Ë": 150,
      "Ì": 151,
      "Í": 152,
      "Î": 153,
      "Ï": 154,
      "Ð": 155,
      "Ñ": 156,
      "Ò": 157,
      "Ó": 158,
      "Ô": 159,
      "Õ": 160,
      "Ö": 161,
      "×": 162,
      "Ø": 163,
      "Ù": 164,
      "Ú": 165,
      "Û": 166,
      "Ü": 167,
      "Ý": 168,
      "Þ": 169,
      "ß": 170,
      "à": 171,
      "á": 172,
      "â": 173,
      "ã": 174,
      "ä": 175,
      "å": 176,
      "æ": 177,
      "ç": 178,
      "è": 179,
      "é": 180,
      "ê": 181,
      "ë": 182,
      "ì": 183,
      "í": 184,
      "î": 185,
      "ï": 186,
      "ð": 187,
      "ñ": 188,
      "ò": 189,
      "ó": 190,
      "ô": 191,
      "õ": 192,
      "ö": 193,
      "÷": 194,
      "ø": 195,
      "ù": 196,
      "ú": 197,
      "û": 198,
      "ü": 199,
      "ý": 200,
      "þ": 201,
      "ÿ": 202,
      "Ā": 203,
      "ā": 204,
      "Ă": 205,
      "ă": 206,
      "Ą": 207,
      "ą": 208,
      "Ć": 209,
      "ć": 210,
      "Ĉ": 211,
      "ĉ": 212,
      "Ċ": 213,
      "ċ": 214,
      "Č": 215,
      "č": 216,
      "Ď": 217,
      "ď": 218,
      "Đ": 219,
      "đ": 220,
      "Ē": 221,
      "ē": 222,
      "Ĕ": 223,
      "ĕ": 224,
      "Ė": 225,
      "ė": 226,
      "Ę": 227,
      "ę": 228,
      "Ě": 229,
      "ě": 230,
      "Ĝ": 231,
      "ĝ": 232,
      "Ğ": 233,
      "ğ": 234,
      "Ġ": 235,
      "ġ": 236,
      "Ģ": 237,
      "ģ": 238,
      "Ĥ": 239,
      "ĥ": 240,
      "Ħ": 241,
      "ħ": 242,
      "Ĩ": 243,
      "ĩ": 244,
      "Ī": 245,
      "ī": 246,
      "Ĭ": 247,
      "ĭ": 248,
      "Į": 249,
      "į": 250,
      "İ": 251,
      "ı": 252,
      "Ĳ": 253,
      "ĳ": 254,
      "Ĵ": 255,
      "ĵ": 256,
      "Ķ": 257,
      "ķ": 258,
      "ĸ": 259,
      "Ĺ": 260,
      "ĺ": 261,
      "Ļ": 262,
      "ļ": 263,
      "Ľ": 264,
      "ľ": 265,
      "Ŀ": 266,
      "ŀ": 267,
      "Ł": 268,
      "ł": 269,
      "Ń": 270,
      "Ġt": 271,
      "Ġa": 272,
      "he": 273,
      "in": 274,
      "er": 275,
      "Ġthe": 276,
      "on": 277,
      "re": 278,
      "Ġo": 279,
      "Ġs": 280,
      "at": 281,
      "nd": 282,
      "is": 283,
      "Ġc": 284,
      "Ġw": 285,
      "es": 286,
      "en": 287,
      "or": 288,
      "an": 289,
      "ed": 290,
      "it": 291,
      "al": 292,
      "Ġf": 293,
      "ar": 294,
      "Ġb": 295,
      "Ġp": 296,
      "Ġin": 297,
      "Ġof": 298,
      "ing": 299,
      "Ġand": 300,
      "Ġm": 301,
      "ou": 302,
      "ic": 303,
      "as": 304,
      "Ġto": 305,
      "Ġd": 306,
      "ion": 307,
      "le": 308,
      "om": 309,
      "Ġh": 310,
      "Ġis": 311,
      "ent": 312,
      "Ġl": 313,
      "il": 314,
      "st": 315,
      "ro": 316,
      "Ġe": 317,
      "el": 318,
      "ĠS": 319,
      "Ġre": 320,
      "am": 321,
      "ĠT": 322,
      "ct": 323,
      "ĠA": 324,
      "et": 325,
      "Ġth": 326,
      "Ġn": 327,
      "Ġg": 328,
      "ol": 329,
      "ĠC": 330,
      "iv": 331,
      "ra": 332,
      "ch": 333,
      "ow": 334,
      "id": 335,
      "ly": 336,
      "us": 337,
      "ĠI": 338,
      "im": 339,
      "ce": 340,
      "ot": 341,
      "Ġ1": 342,
      "ig": 343,
      "Ġfor": 344,
      "Ġon": 345,
      "ur": 346,
      "ation": 347,
      "ĠM": 348,
      "Ġbe": 349,
      "ay": 350,
      "ut": 351,
      "Ġas": 352,
      "ers": 353,
      "ir": 354,
      "ĠB": 355,
      "Ġst": 356,
      "ad": 357,
      "Ġare": 358,
      "ul": 359,
      "Ġy": 360,
      "ith": 361,
      "ĠP": 362,
      "Ġ(": 363,
      "ter": 364,
      "ĠThe": 365,
      "un": 366,
      "her": 367,
      "Ġwh": 368,
      "Ġwith": 369,
      "if": 370,
      "ĠH": 371,
      "Ġwas": 372,
      "Ġor": 373,
      "Ġan": 374,
      "Ġal": 375,
      "est": 376,
      "Ġ2": 377,
      "ver": 378,
      "ag": 379,
      "Ġthat": 380,
      "em": 381,
      "um": 382,
      "ist": 383,
      "th": 384,
      "od": 385,
      "ĠF": 386,
      "Ġcon": 387,
      "Ġit": 388,
      "ĠG": 389,
      "Ġby": 390,
      "ĠD": 391,
      "av": 392,
      "Ġcom": 393,
      "ĠR": 394,
      "op": 395,
      "Ġfr": 396,
      "os": 397,
      "ies": 398,
      "ĠW": 399,
      "Ġyou": 400,
      "and": 401,
      "Ġpro": 402,
      "ĠN": 403,
      "Ġv": 404,
      "ĠL": 405,
      "ld": 406,
      "ac": 407,
      "pe": 408,
      "ĠE": 409,
      "'s": 410,
      "ke": 411,
      "Ġde": 412,
      "oc": 413,
      "Ġat": 414,
      "ate": 415,
      "ill": 416,
      "Ġmo": 417,
      "all": 418,
      "ab": 419,
      "ity": 420,
      "Ġ19": 421,
      "res": 422,
      "ain": 423,
      "Ġhe": 424,
      "Ġr": 425,
      "ive": 426,
      "Ġfrom": 427,
      "qu": 428,
      "Ġ20": 429,
      "Ġse": 430,
      "igh": 431,
      "ich": 432,
      "Ġex": 433,
      "ess": 434,
      "Ġsu": 435,
      "ĠJ": 436,
      "ant": 437,
      "ort": 438,
      "Ġpl": 439,
      "se": 440,
      "art": 441,
      "ia": 442,
      "ĠU": 443,
      "nt": 444,
      "ard": 445,
      "Wh": 446,
      "ri": 447,
      "pp": 448,
      "ud": 449,
      "Ġch": 450,
      "Ġus": 451,
      "ally": 452,
      "ĠO": 453,
      "âĢ": 454,
      "The": 455,
      "Ġcan": 456,
      "ome": 457,
      "our": 458,
      "ge": 459,
      "Ġle": 460,
      "ell": 461,
      "ast": 462,
      "Ġne": 463,
      "ave": 464,
      "ated": 465,
      "ber": 466,
      "Ġwhich": 467,
      "og": 468,
      "Ġ\"": 469,
      "ap": 470,
      "Ġsh": 471,
      "Ġcomp": 472,
      "ight": 473,
      "ame": 474,
      "ment": 475,
      "Ġwor": 476,
      "Ġte": 477,
      "Ġk": 478,
      "ure": 479,
      "ak": 480,
      "ine": 481,
      "ian": 482,
      "ip": 483,
      "ions": 484,
      "ĠK": 485,
      "rou": 486,
      "ie": 487,
      "ong": 488,
      "ther": 489,
      "ial": 490,
      "ĠSt": 491,
      "00": 492,
      "Ġhave": 493,
      "so": 494,
      "up": 495,
      "ust": 496,
      "Ġwhe": 497,
      "ore": 498,
      "Ġinc": 499,
      "mer": 500,
      "gh": 501,
      "ry": 502,
      "ass": 503,
      "ect": 504,
      "fer": 505,
      "iz": 506,
      "ide": 507,
      "any": 508,
      "Ġhas": 509,
      "are": 510,
      "ĠIn": 511,
      "Ġnot": 512,
      "ear": 513,
      "ire": 514,
      "ric": 515,
      "out": 516,
      "ould": 517,
      "What": 518,
      "du": 519,
      "age": 520,
      "ount": 521,
      "Ġhis": 522,
      "ĠIt": 523,
      "pt": 524,
      "ach": 525,
      "ks": 526,
      "ary": 527,
      "Ġab": 528,
      "ous": 529,
      "ue": 530,
      "ub": 531,
      "ish": 532,
      "Ġme": 533,
      "ran": 534,
      "ood": 535,
      "low": 536,
      "per": 537,
      "act": 538,
      "ime": 539,
      "Ġalso": 540,
      "Ġsp": 541,
      "Ġen": 542,
      "irst": 543,
      "ff": 544,
      "Ġcl": 545,
      "ical": 546,
      "ence": 547,
      "ult": 548,
      "Ġint": 549,
      "cc": 550,
      "pl": 551,
      "ates": 552,
      "ĠCh": 553,
      "ord": 554,
      "vel": 555,
      "Ġtheir": 556,
      "ater": 557,
      "Ġcont": 558,
      "ere": 559,
      "ack": 560,
      "Ġun": 561,
      "own": 562,
      "Ġone": 563,
      "Ġad": 564,
      "ve": 565,
      "Ġfirst": 566,
      "ok": 567,
      "ang": 568,
      "Ġplay": 569,
      "Ġyour": 570,
      "ake": 571,
      "rit": 572,
      "lect": 573,
      "ice": 574,
      "Ġtra": 575,
      "ĠV": 576,
      "Ġthis": 577,
      "ĠUn": 578,
      "one": 579,
      "Ġdo": 580,
      "Ġco": 581,
      "Ġper": 582,
      "),": 583,
      "Ġmost": 584,
      "Ġother": 585,
      "ations": 586,
      "ind": 587,
      "lud": 588,
      "Ġwe": 589,
      "Ġim": 590,
      "Ġall": 591,
      "ep": 592,
      "Ġits": 593,
      "Ġres": 594,
      "orm": 595,
      "ound": 596,
      "ĠTh": 597,
      "Ġar": 598,
      "Ġj": 599,
      "Ġbut": 600,
      "les": 601,
      "Ġwere": 602,
      "ign": 603,
      "Ġ201": 604,
      "ely": 605,
      "ree": 606,
      "ile": 607,
      "ond": 608,
      "ark": 609,
      "Ġsc": 610,
      "ition": 611,
      "Ġthey": 612,
      "ew": 613,
      "Ġpart": 614,
      "Ġinclud": 615,
      "Ġbec": 616,
      "ib": 617,
      "Ġmore": 618,
      "Ġro": 619,
      "Ġyear": 620,
      "Ġ3": 621,
      "amp": 622,
      "Ġspe": 623,
      "ase": 624,
      "Ġsome": 625,
      "able": 626,
      "ace": 627,
      "ory": 628,
      "Ġser": 629,
      "ĠY": 630,
      "ited": 631,
      "te": 632,
      "tern": 633,
      "Ġrec": 634,
      "ph": 635,
      "und": 636,
      "Ġkn": 637,
      "ru": 638,
      "ĠHe": 639,
      "Ġtime": 640,
      "Ġpe": 641,
      "Ġwho": 642,
      "Ġcomm": 643,
      "Ġra": 644,
      "ens": 645,
      "Ġout": 646,
      "ors": 647,
      "we": 648,
      "Ġtw": 649,
      "ost": 650,
      "erm": 651,
      "ents": 652,
      "ike": 653,
      "reat": 654,
      "Ġcons": 655,
      "meric": 656,
      "ance": 657,
      "Ġdis": 658,
      "ational": 659,
      "âĢĵ": 660,
      "ased": 661,
      "land": 662,
      "Ġgo": 663,
      "ng": 664,
      "Ġover": 665,
      "orn": 666,
      "Ġso": 667,
      "Ġmany": 668,
      "ces": 669,
      "Ġpre": 670,
      "fter": 671,
      "Ġabout": 672,
      "Ġwhen": 673,
      "Ġup": 674,
      "als": 675,
      "ild": 676,
      "ular": 677,
      "Ġpr": 678,
      "ĠAmeric": 679,
      "Âł": 680,
      "ĠĊ": 681,
      "ĠAl": 682,
      "Ġbet": 683,
      "hed": 684,
      "old": 685,
      "Ġsuch": 686,
      "aus": 687,
      "ob": 688,
      "Ġwill": 689,
      "ons": 690,
      ").": 691,
      "Ġqu": 692,
      "ings": 693,
      "Ġ-": 694,
      "ose": 695,
      "Ġsy": 696,
      "Ġdif": 697,
      "ction": 698,
      "very": 699,
      "Ġinto": 700,
      "ans": 701,
      "form": 702,
      "arg": 703,
      "ail": 704,
      "ople": 705,
      "xt": 706,
      "ck": 707,
      "Ġev": 708,
      "ov": 709,
      "ite": 710,
      "ress": 711,
      "Ġtwo": 712,
      "Ġimp": 713,
      "aw": 714,
      "Ġdes": 715,
      "ick": 716,
      "oy": 717,
      "Ġapp": 718,
      "20": 719,
      "ced": 720,
      "uring": 721,
      "ning": 722,
      "Ġpop": 723,
      "int": 724,
      "ĠInd": 725,
      "ific": 726,
      "Ġused": 727,
      "lic": 728,
      "Ġworld": 729,
      "Ġthem": 730,
      "ollow": 731,
      "Ġbeen": 732,
      "Ġgen": 733,
      "Ġ200": 734,
      "ough": 735,
      "ays": 736,
      "ne": 737,
      "Ġ18": 738,
      "Ġteam": 739,
      "ft": 740,
      "ities": 741,
      "Ġprodu": 742,
      "red": 743,
      "Ġcount": 744,
      "Ġ4": 745,
      "Ġthan": 746,
      "Ġag": 747,
      "wn": 748,
      "Ġpeople": 749,
      "Ġind": 750,
      "Ġhad": 751,
      "ĠUnited": 752,
      "rough": 753,
      "ics": 754,
      "Ġform": 755,
      "Ġact": 756,
      "Ġfollow": 757,
      "19": 758,
      "Ġelect": 759,
      "Ġdiffer": 760,
      "Ġwork": 761,
      "ball": 762,
      "Ġwould": 763,
      "In": 764,
      "ari": 765,
      "hes": 766,
      "ween": 767,
      "ĠSe": 768,
      "round": 769,
      "Ġcol": 770,
      "ivers": 771,
      "ward": 772,
      "Ġbo": 773,
      "Ġmod": 774,
      "Ġ5": 775,
      "stem": 776,
      "ied": 777,
      "ata": 778,
      "Ġam": 779,
      "oth": 780,
      "Ġuse": 781,
      "ade": 782,
      "olog": 783,
      "Ġfe": 784,
      "Ġreg": 785,
      "Ġty": 786,
      "ved": 787,
      "Ġoff": 788,
      "Ġbetween": 789,
      "Ġknown": 790,
      "ars": 791,
      "ten": 792,
      "Ġwhere": 793,
      "Ġloc": 794,
      "hip": 795,
      "ating": 796,
      "Ġbu": 797,
      "Ġsec": 798,
      "gan": 799,
      "Ġthere": 800,
      "Ġafter": 801,
      "rib": 802,
      "ys": 803,
      "ract": 804,
      "ames": 805,
      "ower": 806,
      "Ġlike": 807,
      "Ġfl": 808,
      "Ġnew": 809,
      "ĠAs": 810,
      "let": 811,
      "ise": 812,
      "Ġacc": 813,
      "ĠThis": 814,
      "Ġinv": 815,
      "Ġspec": 816,
      "Ġph": 817,
      "Ġlist": 818,
      "ren": 819,
      "its": 820,
      "Ġund": 821,
      "ath": 822,
      "Ġher": 823,
      "ik": 824,
      "Ġthese": 825,
      "ily": 826,
      "ins": 827,
      "Ġcent": 828,
      "Ġman": 829,
      "ĠStates": 830,
      "Ġnum": 831,
      "ool": 832,
      "hen": 833,
      "rans": 834,
      "Ġear": 835,
      "ident": 836,
      "Ġwhat": 837,
      "ember": 838,
      "Ġthrough": 839,
      "cess": 840,
      "Ġyears": 841,
      "Ġbest": 842,
      "illion": 843,
      "ause": 844,
      "Ġdec": 845,
      "Ġeach": 846,
      "Ġmay": 847,
      "Ġrel": 848,
      "iss": 849,
      "ĠAmerican": 850,
      "ines": 851,
      "Ġsystem": 852,
      "ify": 853,
      "ug": 854,
      "velop": 855,
      "Ġinst": 856,
      "Ġinter": 857,
      "Ġonly": 858,
      "Ġ199": 859,
      "Ġunder": 860,
      "ject": 861,
      "ram": 862,
      "Ġbl": 863,
      "oint": 864,
      "Ġfam": 865,
      "Ġprov": 866,
      "ĠLe": 867,
      "ĠAr": 868,
      "ual": 869,
      "Ġwell": 870,
      "Ġfin": 871,
      "Ġcar": 872,
      "ets": 873,
      "ix": 874,
      "end": 875,
      "aj": 876,
      "ĠSp": 877,
      "Ġno": 878,
      "Ġfound": 879,
      "Ġwater": 880,
      "Ġhow": 881,
      "ider": 882,
      "ll": 883,
      "erson": 884,
      "ict": 885,
      "ife": 886,
      "ason": 887,
      "co": 888,
      "Ġcall": 889,
      "Ġmus": 890,
      "Ġneed": 891,
      "ring": 892,
      "ĠNew": 893,
      "Ġpres": 894,
      "Ġsub": 895,
      "Ġatt": 896,
      "Ġdifferent": 897,
      "ros": 898,
      "Ġrep": 899,
      "Ġany": 900,
      "ful": 901,
      "Ġsm": 902,
      "ĠMar": 903,
      "ron": 904,
      "iel": 905,
      "Ġass": 906,
      "Ġdef": 907,
      "ral": 908,
      "Ġ202": 909,
      "Ġduring": 910,
      "outh": 911,
      "row": 912,
      "Ġac": 913,
      "oot": 914,
      "tain": 915,
      "ures": 916,
      "ĠDe": 917,
      "Ġgener": 918,
      "Ġhigh": 919,
      "ork": 920,
      "ically": 921,
      "Ġlo": 922,
      "Ġrem": 923,
      "ĠRe": 924,
      "urn": 925,
      "io": 926,
      "Ġif": 927,
      "ts": 928,
      "Ġtrans": 929,
      "âĢĻ": 930,
      "Ġdevelop": 931,
      "Ġdata": 932,
      "Ġem": 933,
      "ince": 934,
      "Ġfollowing": 935,
      "Ġcre": 936,
      "iven": 937,
      "ink": 938,
      "dition": 939,
      "ient": 940,
      "pen": 941,
      "ting": 942,
      "ock": 943,
      "fore": 944,
      "con": 945,
      "ank": 946,
      "Ġlong": 947,
      "raph": 948,
      "Ġdr": 949,
      "Ġmet": 950,
      "Ġ6": 951,
      "ural": 952,
      "ism": 953,
      "orld": 954,
      "Ġcap": 955,
      "Ġ198": 956,
      "Ġmain": 957,
      "ah": 958,
      "Ġvari": 959,
      "Ġmade": 960,
      "Ġbeing": 961,
      "Ġthen": 962,
      "Ġpos": 963,
      "ather": 964,
      "Ġpar": 965,
      "Ġpol": 966,
      "Ġhel": 967,
      "angu": 968,
      "Ġsk": 969,
      "anc": 970,
      "orth": 971,
      "Ġthree": 972,
      "Ġstart": 973,
      "oh": 974,
      "ative": 975,
      "Ġend": 976,
      "ublic": 977,
      "ash": 978,
      "ually": 979,
      "Ġke": 980,
      "iver": 981,
      "ature": 982,
      "ven": 983,
      "Ġwhile": 984,
      "ax": 985,
      "tle": 986,
      "ized": 987,
      "Ġtyp": 988,
      "Ġdist": 989,
      "Ġgame": 990,
      "uc": 991,
      "Ġmake": 992,
      "Ġob": 993,
      "aking": 994,
      "ern": 995,
      "Ġhum": 996,
      "uss": 997,
      "ĠEng": 998,
      "ever": 999,
      "ield": 1000,
      "ility": 1001,
      "ilm": 1002,
      "ouse": 1003,
      "ĠSh": 1004,
      "chool": 1005,
      "Ġrun": 1006,
      "ible": 1007,
      "Ġshe": 1008,
      "Ġcur": 1009,
      "arge": 1010,
      "Ġmy": 1011,
      "Ġsur": 1012,
      "Ġget": 1013,
      "ries": 1014,
      "ee": 1015,
      "ĠWorld": 1016,
      "Ġlangu": 1017,
      "ange": 1018,
      "Ġinclude": 1019,
      "ined": 1020,
      "Ġwin": 1021,
      "Ġwon": 1022,
      "Ġeff": 1023,
      "Ġpass": 1024,
      "ury": 1025,
      "Ġpopular": 1026,
      "Ġhelp": 1027,
      "Ġgra": 1028,
      "Ġnumber": 1029,
      "Ġlarg": 1030,
      "Ġart": 1031,
      "ier": 1032,
      "Ġshould": 1033,
      "ants": 1034,
      "Ġcommon": 1035,
      "Ġent": 1036,
      "Ġlead": 1037,
      "Ġsim": 1038,
      "ional": 1039,
      "Ġhist": 1040,
      "man": 1041,
      "Ġexp": 1042,
      "au": 1043,
      "ĠAn": 1044,
      "Ġset": 1045,
      "iet": 1046,
      "Ġcould": 1047,
      "imes": 1048,
      "Ġcalled": 1049,
      "Ġgood": 1050,
      "Ġmov": 1051,
      "Ġincluding": 1052,
      "Ġconsider": 1053,
      "000": 1054,
      "az": 1055,
      "bo": 1056,
      "chn": 1057,
      "ement": 1058,
      "Ġstud": 1059,
      "cy": 1060,
      "eg": 1061,
      "Ġrecord": 1062,
      "Ġserv": 1063,
      "uro": 1064,
      "ton": 1065,
      "Ġmin": 1066,
      "pend": 1067,
      "enn": 1068,
      "Ġbre": 1069,
      "ished": 1070,
      "Ġcity": 1071,
      "Ġfour": 1072,
      "omet": 1073,
      "Ġperson": 1074,
      "Ġext": 1075,
      "ĠFran": 1076,
      "roup": 1077,
      "gy": 1078,
      "ĠĠ": 1079,
      "Ġboth": 1080,
      "Ġaround": 1081,
      "Ġinf": 1082,
      "Ġsecond": 1083,
      "Ġprocess": 1084,
      "Ġrefer": 1085,
      "Ġoften": 1086,
      "air": 1087,
      "Ġback": 1088,
      "ious": 1089,
      "ments": 1090,
      "Ġbel": 1091,
      "ES": 1092,
      "uch": 1093,
      "Ġgreat": 1094,
      "els": 1095,
      "Ġsign": 1096,
      "der": 1097,
      "Ġown": 1098,
      "Ġsing": 1099,
      "ience": 1100,
      "ex": 1101,
      "rom": 1102,
      "ruct": 1103,
      "Ġstate": 1104,
      "ina": 1105,
      "Ġday": 1106,
      "other": 1107,
      "Ġbecause": 1108,
      "ajor": 1109,
      "Ġsoc": 1110,
      "ĠCom": 1111,
      "igin": 1112,
      "Ġbased": 1113,
      "ĠYou": 1114,
      "Ġsupp": 1115,
      "Ġ197": 1116,
      "Ġsmall": 1117,
      "af": 1118,
      "Ġ196": 1119,
      "Ġret": 1120,
      "rent": 1121,
      "uit": 1122,
      "Ġmon": 1123,
      "Ġmed": 1124,
      "Ġmil": 1125,
      "orts": 1126,
      "Ġtop": 1127,
      "How": 1128,
      "ists": 1129,
      "Ġbefore": 1130,
      "Ġ7": 1131,
      "Ġvis": 1132,
      "Ġmat": 1133,
      "Ġmillion": 1134,
      "ross": 1135,
      "Ġrequ": 1136,
      "Ġrele": 1137,
      "Ġmark": 1138,
      "Ġname": 1139,
      "Ġche": 1140,
      "pect": 1141,
      "ĠThey": 1142,
      "LT": 1143,
      "ner": 1144,
      "ital": 1145,
      "led": 1146,
      "oun": 1147,
      "ices": 1148,
      "Ġdire": 1149,
      "ird": 1150,
      "ution": 1151,
      "Ġseason": 1152,
      "lass": 1153,
      "Ġvery": 1154,
      "Ġlife": 1155,
      "ium": 1156,
      "ket": 1157,
      "ially": 1158,
      "Ġbecame": 1159,
      "Ġ8": 1160,
      "alth": 1161,
      "ize": 1162,
      "app": 1163,
      "Ġfilm": 1164,
      "elf": 1165,
      "Ġcountry": 1166,
      "Ġelectric": 1167,
      "ĠZ": 1168,
      "ble": 1169,
      "ĠWh": 1170,
      "Ġagain": 1171,
      "ology": 1172,
      "Ġcompany": 1173,
      "Ġpoint": 1174,
      "lish": 1175,
      "Ġpower": 1176,
      "ĠEuro": 1177,
      "Ġwrit": 1178,
      "Ġaut": 1179,
      "ĠFor": 1180,
      "Ġtechn": 1181,
      "reen": 1182,
      "ale": 1183,
      "ull": 1184,
      "ages": 1185,
      "ĠWar": 1186,
      "Ġtext": 1187,
      "ris": 1188,
      "vern": 1189,
      "Ġseries": 1190,
      "Ġ9": 1191,
      "ining": 1192,
      "ec": 1193,
      "eng": 1194,
      "nam": 1195,
      "RES": 1196,
      "ats": 1197,
      "Ġchar": 1198,
      "ULT": 1199,
      "iversity": 1200,
      "ague": 1201,
      "RESULT": 1202,
      "ision": 1203,
      "ont": 1204,
      "Ġ10": 1205,
      "rop": 1206,
      "cept": 1207,
      "ired": 1208,
      "ene": 1209,
      "Ġincre": 1210,
      "Ġfood": 1211,
      "day": 1212,
      "way": 1213,
      "ĠâĢĵ": 1214,
      "Ġterm": 1215,
      "Ġsol": 1216,
      "Ġhim": 1217,
      "Ġdoes": 1218,
      "ĠIndia": 1219,
      "Ġmajor": 1220,
      "Ġap": 1221,
      "'t": 1222,
      "ted": 1223,
      "\",": 1224,
      "ty": 1225,
      "Ġlarge": 1226,
      "Ġorigin": 1227,
      "akes": 1228,
      "iving": 1229,
      "Ġlanguage": 1230,
      "vent": 1231,
      "ĠUS": 1232,
      "ootball": 1233,
      "cer": 1234,
      "rum": 1235,
      "ĠEurope": 1236,
      "Ġdid": 1237,
      "Ġopen": 1238,
      "Ġeng": 1239,
      "ai": 1240,
      "Ġway": 1241,
      "Ġdown": 1242,
      "Ġplan": 1243,
      "ĠCol": 1244,
      "Ġbas": 1245,
      "Ġsame": 1246,
      "Ġarea": 1247,
      "Ġprog": 1248,
      "arm": 1249,
      "iqu": 1250,
      "ulation": 1251,
      "Ġusing": 1252,
      "Ġmusic": 1253,
      "ues": 1254,
      "ĠBl": 1255,
      "\".": 1256,
      "ives": 1257,
      "iew": 1258,
      "Ġdesign": 1259,
      "Ġgroup": 1260,
      "Ġevery": 1261,
      "conom": 1262,
      "Ġimport": 1263,
      "ĠSc": 1264,
      "Ġsever": 1265,
      "bers": 1266,
      "ling": 1267,
      "ohn": 1268,
      "ĠPl": 1269,
      "Ġcare": 1270,
      "Ġlater": 1271,
      "ided": 1272,
      "Ġest": 1273,
      "Ġchild": 1274,
      "ĠAd": 1275,
      "ived": 1276,
      "Ġfun": 1277,
      "Ġhome": 1278,
      "Ġlear": 1279,
      "Ġresult": 1280,
      "ĠAt": 1281,
      "gg": 1282,
      "til": 1283,
      "Ġperform": 1284,
      "ampions": 1285,
      "inc": 1286,
      "Ġsince": 1287,
      "Ġair": 1288,
      "iness": 1289,
      "Ġclass": 1290,
      "Ġcharact": 1291,
      "Ġbro": 1292,
      "Ġearly": 1293,
      "ccess": 1294,
      "Ġpartic": 1295,
      "Ġav": 1296,
      "here": 1297,
      "Ġtake": 1298,
      "ody": 1299,
      "Ġexper": 1300,
      "Ġbuild": 1301,
      "ĠIs": 1302,
      "Who": 1303,
      "ĠHow": 1304,
      "Ġbus": 1305,
      "Ġfamily": 1306,
      "Ġval": 1307,
      "Ġallow": 1308,
      "Ġshow": 1309,
      "Ġ17": 1310,
      "Ġdirect": 1311,
      "Ġmult": 1312,
      "Ġcontin": 1313,
      "Ġcontro": 1314,
      "ware": 1315,
      "ared": 1316,
      "rid": 1317,
      "Ġuntil": 1318,
      "Ġmem": 1319,
      "arch": 1320,
      "ample": 1321,
      "pr": 1322,
      "Ġtour": 1323,
      "Ġoper": 1324,
      "Ġorgan": 1325,
      "erv": 1326,
      "ley": 1327,
      "Ġplayed": 1328,
      "ĠShe": 1329,
      "Ġprof": 1330,
      "Ġpur": 1331,
      "ains": 1332,
      "Ġbat": 1333,
      "ĠAust": 1334,
      "hest": 1335,
      "Ġhand": 1336,
      "ĠGerm": 1337,
      "Ġlargest": 1338,
      "ĠPro": 1339,
      "Ġlight": 1340,
      "Ġschool": 1341,
      "ĠBe": 1342,
      "Ġstr": 1343,
      "ĠIf": 1344,
      "ĠNational": 1345,
      "lished": 1346,
      "Ġ$": 1347,
      "Ġimportant": 1348,
      "Ġins": 1349,
      "rand": 1350,
      "Ã©": 1351,
      "Ġlast": 1352,
      "ĠSouth": 1353,
      "Ġstre": 1354,
      "Ġed": 1355,
      "Ġcurrent": 1356,
      "mp": 1357,
      "Ġcountries": 1358,
      "Ġdesc": 1359,
      "ĠPh": 1360,
      "ĠâĢ": 1361,
      "Ġadd": 1362,
      "Ġseveral": 1363,
      "ness": 1364,
      "Ġcompet": 1365,
      "Ġpublic": 1366,
      "une": 1367,
      "Ġhig": 1368,
      "Which": 1369,
      "Ġmuch": 1370,
      "ĠCl": 1371,
      "ĠThere": 1372,
      "Ġadv": 1373,
      "Ġsum": 1374,
      "Ġdet": 1375,
      "ither": 1376,
      "ĠCan": 1377,
      "Ġeffect": 1378,
      "alk": 1379,
      "Ġfive": 1380,
      "ĠSw": 1381,
      "iam": 1382,
      "ober": 1383,
      "Ġcomput": 1384,
      "Ġhuman": 1385,
      "amed": 1386,
      "Ġexpl": 1387,
      "ĠIndian": 1388,
      "the": 1389,
      "Ġ'": 1390,
      "Ġdog": 1391,
      "Ġsuccess": 1392,
      "Ġgovern": 1393,
      "Ġ195": 1394,
      "Ġplace": 1395,
      "Ġhistory": 1396,
      "Ġexample": 1397,
      "ĠJohn": 1398,
      "Ġproduct": 1399,
      "Ġeconom": 1400,
      "ese": 1401,
      "Ġlaw": 1402,
      "Ġequ": 1403,
      "ively": 1404,
      "ple": 1405,
      "Ġ15": 1406,
      "aving": 1407,
      "Ġcentury": 1408,
      "Ġcommun": 1409,
      "Ġold": 1410,
      "ĠBrit": 1411,
      "apan": 1412,
      "Ġright": 1413,
      "Ġfact": 1414,
      "Ġrece": 1415,
      "oci": 1416,
      "ases": 1417,
      "Ġword": 1418,
      "ately": 1419,
      "orp": 1420,
      "Ġland": 1421,
      "ĠUniversity": 1422,
      "Ġsal": 1423,
      "Ġ194": 1424,
      "ĠQ": 1425,
      "ĠCal": 1426,
      "cle": 1427,
      "Ġcult": 1428,
      "ides": 1429,
      "itions": 1430,
      "Ġeven": 1431,
      "ality": 1432,
      "ĠNorth": 1433,
      "gen": 1434,
      "to": 1435,
      "omin": 1436,
      "Ġrest": 1437,
      "ified": 1438,
      "Ġanim": 1439,
      "ute": 1440,
      "Ġgrow": 1441,
      "Ġocc": 1442,
      "ĠAf": 1443,
      "Ġsee": 1444,
      "Ġfew": 1445,
      "Ġfield": 1446,
      "osed": 1447,
      "wards": 1448,
      "Ġmodel": 1449,
      "atic": 1450,
      "Ġstand": 1451,
      "ĠCon": 1452,
      "ization": 1453,
      "Ġconsidered": 1454,
      "Ġappe": 1455,
      "eb": 1456,
      "tend": 1457,
      "Ġappro": 1458,
      "Ġhead": 1459,
      "Ġeas": 1460,
      "Ġprogram": 1461,
      "Ġactiv": 1462,
      "Ġref": 1463,
      "CA": 1464,
      "Ġgl": 1465,
      "ĠKing": 1466,
      "Ġmarket": 1467,
      "vers": 1468,
      "Ġopp": 1469,
      "Ġball": 1470,
      "Ġjust": 1471,
      "ves": 1472,
      "ised": 1473,
      "lex": 1474,
      "Ġperc": 1475,
      "ampionship": 1476,
      "bum": 1477,
      "18": 1478,
      "ger": 1479,
      "eder": 1480,
      "Ġ16": 1481,
      "Ġlevel": 1482,
      "ternational": 1483,
      "Ġagainst": 1484,
      "aster": 1485,
      "ĠOn": 1486,
      "son": 1487,
      "Ġwant": 1488,
      "ĠCar": 1489,
      "ĠHar": 1490,
      "Ġinfl": 1491,
      "ories": 1492,
      "Ġopt": 1493,
      "Ġshort": 1494,
      "Ġnear": 1495,
      "ĠAmerica": 1496,
      "ĠHowever": 1497,
      "Ġknow": 1498,
      "iod": 1499,
      "Ġtit": 1500,
      "atural": 1501,
      "oss": 1502,
      "ĠEnglish": 1503,
      "com": 1504,
      "Ġfind": 1505,
      "Ġnet": 1506,
      "read": 1507,
      "Ġconst": 1508,
      "ĠAll": 1509,
      "agn": 1510,
      "ences": 1511,
      "Ġteams": 1512,
      "de": 1513,
      "Ġdue": 1514,
      "Why": 1515,
      "Ġsw": 1516,
      "formation": 1517,
      "Ġnamed": 1518,
      "ann": 1519,
      "ĠJapan": 1520,
      "10": 1521,
      "line": 1522,
      "Ġevent": 1523,
      "Ġann": 1524,
      ".\"": 1525,
      "Ġsomet": 1526,
      "ane": 1527,
      "Ġla": 1528,
      "Ġplayer": 1529,
      "par": 1530,
      "Ġgames": 1531,
      "Ġbusiness": 1532,
      "ĠAm": 1533,
      "ots": 1534,
      "Ġener": 1535,
      "oman": 1536,
      "Ġprofess": 1537,
      "Ġplayers": 1538,
      "Ġsl": 1539,
      "Ġless": 1540,
      "Ġdescrib": 1541,
      "Th": 1542,
      "Ġfootball": 1543,
      "Ġthose": 1544,
      "ove": 1545,
      "Ġresp": 1546,
      "Ġsour": 1547,
      "Ġtem": 1548,
      "Ġ12": 1549,
      "Given": 1550,
      "Ġpolit": 1551,
      "Ġalbum": 1552,
      "Ġoffic": 1553,
      "Ġeither": 1554,
      "Ġsingle": 1555,
      "ards": 1556,
      "Ġwithin": 1557,
      "Ġengine": 1558,
      "ches": 1559,
      "yd": 1560,
      "Ġbody": 1561,
      "Ġphys": 1562,
      "Ġstring": 1563,
      "ploy": 1564,
      "Ġparag": 1565,
      "Ġsupport": 1566,
      "gin": 1567,
      "ĠLeague": 1568,
      "rem": 1569,
      "now": 1570,
      "Ġpopulation": 1571,
      "Ġsun": 1572,
      "Ġhealth": 1573,
      "port": 1574,
      "work": 1575,
      "nect": 1576,
      "aly": 1577,
      "Ġlit": 1578,
      "ĠAnd": 1579,
      "Ġparagraph": 1580,
      "cl": 1581,
      "get": 1582,
      "ĠThese": 1583,
      "Ġlocated": 1584,
      "Ġ2022": 1585,
      "ms": 1586,
      "ĠGo": 1587,
      "ĠAfric": 1588,
      "by": 1589,
      "Ġtr": 1590,
      "Ġwar": 1591,
      "ivid": 1592,
      "ored": 1593,
      "ering": 1594,
      "ote": 1595,
      "Ġreleased": 1596,
      "Ġmust": 1597,
      "ently": 1598,
      "Ġbecome": 1599,
      "Ġinvest": 1600,
      "Ġage": 1601,
      "rench": 1602,
      "ĠYork": 1603,
      "Ġsong": 1604,
      "ĠSan": 1605,
      "Ġreal": 1606,
      "ode": 1607,
      "aid": 1608,
      "Ġtimes": 1609,
      "ditional": 1610,
      "side": 1611,
      "arth": 1612,
      "Ġorder": 1613,
      "ĠGe": 1614,
      "iend": 1615,
      "Ġposs": 1616,
      "ĠAustral": 1617,
      "ination": 1618,
      "Ġfriend": 1619,
      "itive": 1620,
      "Ġusually": 1621,
      "cing": 1622,
      "Ġele": 1623,
      "Ġbegan": 1624,
      "iforn": 1625,
      "ried": 1626,
      "There": 1627,
      "Ġprim": 1628,
      "oor": 1629,
      "Ġtypically": 1630,
      "Ġenergy": 1631,
      "Ġnow": 1632,
      "Ġnational": 1633,
      "Ġtraining": 1634,
      "Ġinterest": 1635,
      "Ġcat": 1636,
      "Ġborn": 1637,
      "Ġpot": 1638,
      "200": 1639,
      "Ġalong": 1640,
      "lands": 1641,
      "Ġide": 1642,
      "Ġperiod": 1643,
      "ifornia": 1644,
      "ential": 1645,
      "ilt": 1646,
      "ĠCity": 1647,
      "Ġvisit": 1648,
      "Ġcour": 1649,
      "ĠBritish": 1650,
      "ones": 1651,
      "though": 1652,
      "Ġprot": 1653,
      "Ġ193": 1654,
      "oney": 1655,
      "sc": 1656,
      "Ġhard": 1657,
      "ada": 1658,
      "Ġnon": 1659,
      "sh": 1660,
      "Ġprom": 1661,
      "Give": 1662,
      "ration": 1663,
      "rodu": 1664,
      "Ġleg": 1665,
      "ense": 1666,
      "lo": 1667,
      "tal": 1668,
      "Ġwee": 1669,
      "Ġpresident": 1670,
      "ĠMay": 1671,
      "Ġanother": 1672,
      "Ġdel": 1673,
      "Ġmanag": 1674,
      "ĠMus": 1675,
      "hing": 1676,
      "Ġcharacter": 1677,
      "Ġspecies": 1678,
      "pril": 1679,
      "ator": 1680,
      "âĢĿ": 1681,
      "ograph": 1682,
      "Ġgu": 1683,
      "Ġdays": 1684,
      "Ġlow": 1685,
      "Ġgiven": 1686,
      "Ġtravel": 1687,
      "ugust": 1688,
      "ilar": 1689,
      "Ġwithout": 1690,
      "key": 1691,
      "Ġredu": 1692,
      "Ġmonth": 1693,
      "Ġmar": 1694,
      "Ġled": 1695,
      "Ġthings": 1696,
      "Ġthough": 1697,
      "Ġinstrum": 1698,
      "Ġsocial": 1699,
      "Ġes": 1700,
      "omen": 1701,
      "ney": 1702,
      "Ġour": 1703,
      "ĠFin": 1704,
      "ze": 1705,
      "resent": 1706,
      "Ġpract": 1707,
      "Ġcreated": 1708,
      "Ġmaking": 1709,
      "Ġkey": 1710,
      "ĠCalifornia": 1711,
      "ety": 1712,
      "idd": 1713,
      "Ġindivid": 1714,
      "Ġcapital": 1715,
      "aces": 1716,
      "Ġlook": 1717,
      "Ġkeep": 1718,
      "Ġcontrol": 1719,
      "iron": 1720,
      "Ġcomb": 1721,
      "Ġchildren": 1722,
      "Ġinformation": 1723,
      "oks": 1724,
      "ivil": 1725,
      "Ġdisc": 1726,
      "Ġobject": 1727,
      "Ġgovernment": 1728,
      "Ġlive": 1729,
      "Ġ14": 1730,
      "Ġstill": 1731,
      "ability": 1732,
      "hor": 1733,
      "Ġcer": 1734,
      "ĠEx": 1735,
      "Ġcareer": 1736,
      "Ġside": 1737,
      "Ġcaus": 1738,
      "lear": 1739,
      "LL": 1740,
      "la": 1741,
      "ways": 1742,
      "Ġnatural": 1743,
      "ott": 1744,
      "Ġstates": 1745,
      "Ġfamous": 1746,
      "ask": 1747,
      "hod": 1748,
      "Ġsoft": 1749,
      "Ġspecific": 1750,
      "ĠApril": 1751,
      "ĠCo": 1752,
      "ival": 1753,
      "pec": 1754,
      "Ch": 1755,
      "ape": 1756,
      "ana": 1757,
      "Ġband": 1758,
      "Ġmember": 1759,
      "ĠX": 1760,
      "ior": 1761,
      "estern": 1762,
      "ĠAfter": 1763,
      "Ġacross": 1764,
      "orpor": 1765,
      "No": 1766,
      "Ġhouse": 1767,
      "Ġthird": 1768,
      "ym": 1769,
      "Ġturn": 1770,
      "Ġways": 1771,
      "Ġformer": 1772,
      "tt": 1773,
      "olf": 1774,
      "ptember": 1775,
      "ording": 1776,
      "Ġamong": 1777,
      "Ġconf": 1778,
      "iple": 1779,
      "ention": 1780,
      "Ġimpro": 1781,
      "ĠMarch": 1782,
      "put": 1783,
      "ËĪ": 1784,
      "Ġpub": 1785,
      "anu": 1786,
      "ĠHis": 1787,
      "Ġvide": 1788,
      "Ġarch": 1789,
      "Ġcompan": 1790,
      "Ġclub": 1791,
      "Ġlocal": 1792,
      "Ġdevelopment": 1793,
      "It": 1794,
      "rist": 1795,
      "Ġtype": 1796,
      "aut": 1797,
      "Ġfish": 1798,
      "Ġhaving": 1799,
      "ĠGu": 1800,
      "Ġbeh": 1801,
      "Ġflow": 1802,
      "ental": 1803,
      "Ġread": 1804,
      "ocus": 1805,
      "ples": 1806,
      "Ġtri": 1807,
      "verage": 1808,
      "Ġbook": 1809,
      "Ġinvol": 1810,
      "Ġvarious": 1811,
      "Ġtypes": 1812,
      "aur": 1813,
      "ĠCent": 1814,
      "Ġdev": 1815,
      "Ġrev": 1816,
      "ours": 1817,
      "ogn": 1818,
      "less": 1819,
      "oon": 1820,
      "ission": 1821,
      "St": 1822,
      "Ġkm": 1823,
      "Ġclim": 1824,
      "Ġindust": 1825,
      "board": 1826,
      "cis": 1827,
      "alf": 1828,
      "asons": 1829,
      "ming": 1830,
      "ister": 1831,
      "Ġsport": 1832,
      "ĠOr": 1833,
      "ussion": 1834,
      "Ġmembers": 1835,
      "12": 1836,
      "ĠPr": 1837,
      "17": 1838,
      "ler": 1839,
      "ĠTe": 1840,
      "Ġdepend": 1841,
      "Ġchang": 1842,
      "dent": 1843,
      "my": 1844,
      "ĠBo": 1845,
      "Ġstruct": 1846,
      "ribut": 1847,
      "Ġ[": 1848,
      "ĠSome": 1849,
      "Ġ2020": 1850,
      "ights": 1851,
      "Ġbetter": 1852,
      "Ġamount": 1853,
      "bs": 1854,
      "ift": 1855,
      "ffee": 1856,
      "Ġestab": 1857,
      "Ġinflu": 1858,
      "Ġdem": 1859,
      "ĠPar": 1860,
      "ensive": 1861,
      "born": 1862,
      "Ġmight": 1863,
      "ĠPark": 1864,
      "ĠâĢľ": 1865,
      "Ġsix": 1866,
      "ĠII": 1867,
      "Ġ2021": 1868,
      "Ġbene": 1869,
      "lege": 1870,
      "ĠAugust": 1871,
      "Ġ13": 1872,
      "acks": 1873,
      "ĠNov": 1874,
      "ĠOne": 1875,
      "Ġstat": 1876,
      "50": 1877,
      "of": 1878,
      "Ġproper": 1879,
      "Ġnext": 1880,
      "Ġrese": 1881,
      "ĠFrench": 1882,
      "Ġconnect": 1883,
      "][": 1884,
      "yle": 1885,
      "ctober": 1886,
      "ched": 1887,
      "Ġdep": 1888,
      "Ġter": 1889,
      "ĠJu": 1890,
      "lassify": 1891,
      "Ġsit": 1892,
      "Ġcrit": 1893,
      "ĠCup": 1894,
      "cem": 1895,
      "Ġspace": 1896,
      "[/": 1897,
      "Ġfinal": 1898,
      "CALL": 1899,
      "Ġident": 1900,
      "Ġtell": 1901,
      "Ġtotal": 1902,
      "Ġdeveloped": 1903,
      "med": 1904,
      "ency": 1905,
      "dentify": 1906,
      "for": 1907,
      "wh": 1908,
      "joy": 1909,
      "atch": 1910,
      "Ġbase": 1911,
      "ery": 1912,
      "ĠRep": 1913,
      "ĠEarth": 1914,
      "Ġsports": 1915,
      "Ġmodern": 1916,
      "ged": 1917,
      "aced": 1918,
      "Ġwhether": 1919,
      "ountain": 1920,
      "Ġbelie": 1921,
      "eh": 1922,
      "ems": 1923,
      "Ġpercussion": 1924,
      "ead": 1925,
      "ires": 1926,
      "Ġtre": 1927,
      "Ġline": 1928,
      "ued": 1929,
      "Ġred": 1930,
      "ateg": 1931,
      "Ġheld": 1932,
      "Ġsurf": 1933,
      "Ġpassage": 1934,
      "Ġaff": 1935,
      "Ġfre": 1936,
      "Ġhapp": 1937,
      "ĠBra": 1938,
      "Ġproble": 1939,
      "duct": 1940,
      "ĠWhen": 1941,
      "ĠComm": 1942,
      "ĠGeor": 1943,
      "Ġfocus": 1944,
      "Ġtoday": 1945,
      "Ġdra": 1946,
      "ĠBar": 1947,
      "cember": 1948,
      "Identify": 1949,
      "chie": 1950,
      "Ġ100": 1951,
      "ĠMc": 1952,
      "ĠWest": 1953,
      "ĠSeptember": 1954,
      "Ġsystems": 1955,
      "Ġoccur": 1956,
      "Ġbenef": 1957,
      "lor": 1958,
      "rew": 1959,
      "Ġconc": 1960,
      "ustom": 1961,
      "You": 1962,
      "Ġcir": 1963,
      "Ġsimilar": 1964,
      "ured": 1965,
      "Ġassoci": 1966,
      "Classify": 1967,
      "dom": 1968,
      "Ġ&": 1969,
      "icy": 1970,
      "ids": 1971,
      "ung": 1972,
      "ricket": 1973,
      "Ġcost": 1974,
      "ey": 1975,
      "Ġcal": 1976,
      "ĠOctober": 1977,
      "Ġmethod": 1978,
      "Ġhot": 1979,
      "Ġ11": 1980,
      "Ġsepar": 1981,
      "Ġtele": 1982,
      "Ġsignific": 1983,
      "Ġdeb": 1984,
      "ĠJune": 1985,
      "Ġdon": 1986,
      "stand": 1987,
      "Ġdiv": 1988,
      "Ġ30": 1989,
      "Ġgeneral": 1990,
      "uitar": 1991,
      "Ġcamp": 1992,
      "ances": 1993,
      "Ġavail": 1994,
      "fact": 1995,
      "ĠSup": 1996,
      "Ġgr": 1997,
      "ians": 1998,
      "epend": 1999,
      "Ġbillion": 2000,
      "amb": 2001,
      "obal": 2002,
      "Ġmach": 2003,
      "Ġhighest": 2004,
      "Ġlim": 2005,
      "Ġable": 2006,
      "ĠChina": 2007,
      "Ġserved": 2008,
      "Ġfeel": 2009,
      "Ġpain": 2010,
      "Ġcho": 2011,
      "Ġpresent": 2012,
      "Ġtest": 2013,
      "ables": 2014,
      "Ġothers": 2015,
      "Ġhold": 2016,
      "Ġrock": 2017,
      "urity": 2018,
      "Ġspecial": 2019,
      "atures": 2020,
      "Ġlate": 2021,
      "Ġlaun": 2022,
      "ald": 2023,
      "Ġproject": 2024,
      "Ġmeas": 2025,
      "Ġcompanies": 2026,
      "ancial": 2027,
      "ique": 2028,
      "ipp": 2029,
      "Ġmean": 2030,
      "ole": 2031,
      "30": 2032,
      "Ġi": 2033,
      "hem": 2034,
      "ington": 2035,
      "ĠCount": 2036,
      "Ġcomputer": 2037,
      "Ġprofessional": 2038,
      "oes": 2039,
      "Ġbi": 2040,
      "Ġbul": 2041,
      "ilities": 2042,
      "Ġrepresent": 2043,
      "Ġreturn": 2044,
      "Ġpat": 2045,
      "ĠNe": 2046,
      "Ġenjoy": 2047,
      "ĠDecember": 2048,
      "BA": 2049,
      "Ġz": 2050,
      "olution": 2051,
      "ained": 2052,
      "Ġchange": 2053,
      "ondon": 2054,
      "Ġregion": 2055,
      "Ġlearning": 2056,
      "Ġcy": 2057,
      "Ġvol": 2058,
      "Ġproduced": 2059,
      "Ġgenerally": 2060,
      "Ġemploy": 2061,
      "Ġstrong": 2062,
      "rict": 2063,
      "Ġparticular": 2064,
      "Ġleft": 2065,
      "Ġprev": 2066,
      "ĠFrance": 2067,
      "Ġjo": 2068,
      "most": 2069,
      "Ġview": 2070,
      "ps": 2071,
      "Ġnorth": 2072,
      "Ġmoney": 2073,
      "anuary": 2074,
      "Ġfore": 2075,
      "icle": 2076,
      "umb": 2077,
      "ĠEd": 2078,
      "Ġcoffee": 2079,
      "Ġbuilt": 2080,
      "Ġtry": 2081,
      "Ġbank": 2082,
      "ĠEngland": 2083,
      "Ġreference": 2084,
      "Ġcomplet": 2085,
      "Ġapplic": 2086,
      "Ġbig": 2087,
      "ams": 2088,
      "Ġgive": 2089,
      "ĠHer": 2090,
      "Ġintrodu": 2091,
      "Ġprovide": 2092,
      "ĠNovember": 2093,
      "Ġlearn": 2094,
      "Ġsqu": 2095,
      "Ġsouth": 2096,
      "itary": 2097,
      "Ġcor": 2098,
      "ĠAfrica": 2099,
      "oe": 2100,
      "amples": 2101,
      "ows": 2102,
      "ĠMan": 2103,
      "Ġcook": 2104,
      "ĠAss": 2105,
      "be": 2106,
      "Ġpress": 2107,
      "omm": 2108,
      "oll": 2109,
      "ills": 2110,
      "Ġfall": 2111,
      "Ġris": 2112,
      "âĢĶ": 2113,
      "Ġservices": 2114,
      "ĠEuropean": 2115,
      "Ġmot": 2116,
      "Ġquest": 2117,
      "Ġservice": 2118,
      "Ġcustom": 2119,
      "Ġput": 2120,
      "ĠPe": 2121,
      "ĠJuly": 2122,
      "15": 2123,
      "min": 2124,
      "uck": 2125,
      "Ġtoo": 2126,
      "utes": 2127,
      "attle": 2128,
      "itch": 2129,
      "Ġfree": 2130,
      "aterial": 2131,
      "ĠEl": 2132,
      "Ġcommonly": 2133,
      "Tell": 2134,
      "ketball": 2135,
      "Ġachie": 2136,
      "Ġguitar": 2137,
      "ume": 2138,
      "Ġrad": 2139,
      "Ġpoints": 2140,
      "arter": 2141,
      "Ġleast": 2142,
      "Ġsuper": 2143,
      "uel": 2144,
      "Ġlay": 2145,
      "ĠLondon": 2146,
      "Ġfounded": 2147,
      "Ġtournam": 2148,
      "Ġsignificant": 2149,
      "Ġcities": 2150,
      "ush": 2151,
      "ological": 2152,
      "viron": 2153,
      "Ġthink": 2154,
      "Ġprovided": 2155,
      "Ġhistor": 2156,
      "ered": 2157,
      "Ġplaying": 2158,
      "Ġrace": 2159,
      "Ġtemper": 2160,
      "ener": 2161,
      "Ġmen": 2162,
      "ĠWill": 2163,
      "Ġexist": 2164,
      "Ġsaf": 2165,
      "ret": 2166,
      "Ġmi": 2167,
      "Ġiss": 2168,
      "ĠWe": 2169,
      "Ġrecogn": 2170,
      "Ġconsist": 2171,
      "Ġwritten": 2172,
      "Ġbuilding": 2173,
      "ĠRed": 2174,
      "Ġstarted": 2175,
      "mit": 2176,
      "Ġvers": 2177,
      "ĠJanuary": 2178,
      "Ġpublished": 2179,
      "Ġinit": 2180,
      "11": 2181,
      "From": 2182,
      "ert": 2183,
      "Ġel": 2184,
      "ĠSchool": 2185,
      "rain": 2186,
      "Ġtechnology": 2187,
      "itect": 2188,
      "Ġoffer": 2189,
      "Ġreceived": 2190,
      "An": 2191,
      "Ġcr": 2192,
      "Ġport": 2193,
      "Ġmultiple": 2194,
      "Ġvideo": 2195,
      "ino": 2196,
      "Ġwid": 2197,
      "Ġep": 2198,
      "Ġoriginal": 2199,
      "sw": 2200,
      "Ġwood": 2201,
      "Ġwind": 2202,
      "Ġmaterial": 2203,
      "ama": 2204,
      "cher": 2205,
      "Ġtax": 2206,
      "erc": 2207,
      "Ġste": 2208,
      "ably": 2209,
      "ruary": 2210,
      "ebruary": 2211,
      "ĠSing": 2212,
      "arent": 2213,
      "ption": 2214,
      "Ġaccount": 2215,
      "Ġsoftware": 2216,
      "Ġpost": 2217,
      "ĠMin": 2218,
      "Ġblack": 2219,
      "Ġcreate": 2220,
      "ef": 2221,
      "oph": 2222,
      "Ġhit": 2223,
      "ffic": 2224,
      "iding": 2225,
      "Ġevents": 2226,
      "ĠGermany": 2227,
      "Ġpolitical": 2228,
      "aim": 2229,
      "ta": 2230,
      "rown": 2231,
      "ago": 2232,
      "thern": 2233,
      "When": 2234,
      "urther": 2235,
      "ĠGerman": 2236,
      "Ġcirc": 2237,
      "Ġ2019": 2238,
      "inese": 2239,
      "Ġfunction": 2240,
      "16": 2241,
      "Ph": 2242,
      "Ġaward": 2243,
      "Ġpric": 2244,
      "cean": 2245,
      "Ġwhite": 2246,
      "ael": 2247,
      "Ġtoget": 2248,
      "ĠAng": 2249,
      "Ġbreak": 2250,
      "Ġtogether": 2251,
      "Ġcreat": 2252,
      "Ġfull": 2253,
      "ules": 2254,
      "Ġavailable": 2255,
      "Ġrange": 2256,
      "Ġcollect": 2257,
      "iction": 2258,
      "Ġrequire": 2259,
      "Ġpast": 2260,
      "Ġpersonal": 2261,
      "Ġpo": 2262,
      "Ġlik": 2263,
      "Ġrepl": 2264,
      "Ġstory": 2265,
      "adem": 2266,
      "Ġweather": 2267,
      "Ġ2018": 2268,
      "inct": 2269,
      "ales": 2270,
      "rab": 2271,
      "ani": 2272,
      "Ġyoung": 2273,
      "Ġrole": 2274,
      "Ġmanu": 2275,
      "Ġreferred": 2276,
      "Ġresearch": 2277,
      "time": 2278,
      "Ġtook": 2279,
      "ope": 2280,
      "Ġinstrument": 2281,
      "Ġdest": 2282,
      "Ġrunning": 2283,
      "lin": 2284,
      "Ġlot": 2285,
      "aves": 2286,
      "yl": 2287,
      "Ġcivil": 2288,
      "oms": 2289,
      "ĠSun": 2290,
      "Ġaccess": 2291,
      "Ġmanufact": 2292,
      "imately": 2293,
      "ellow": 2294,
      "Ġreport": 2295,
      "Ġexperience": 2296,
      "ony": 2297,
      "outhern": 2298,
      "ica": 2299,
      "asing": 2300,
      "ĠRuss": 2301,
      "ĠAustralia": 2302,
      "Ġge": 2303,
      "Ġanal": 2304,
      "ĠFrancis": 2305,
      "Ġsuccessful": 2306,
      "iddle": 2307,
      "Ġpay": 2308,
      "ico": 2309,
      "osp": 2310,
      "Ġenviron": 2311,
      "iverse": 2312,
      "uits": 2313,
      "era": 2314,
      "omb": 2315,
      "ĠTw": 2316,
      "Ġobs": 2317,
      "Ġpossible": 2318,
      "ma": 2319,
      "hern": 2320,
      "Ġdeg": 2321,
      "Ġsummer": 2322,
      "ĠCanada": 2323,
      "Ġnetwork": 2324,
      "ĠHouse": 2325,
      "ĠGree": 2326,
      "Ġegg": 2327,
      "abor": 2328,
      "Is": 2329,
      "cial": 2330,
      "self": 2331,
      "anish": 2332,
      "Ġproduction": 2333,
      "vision": 2334,
      "reg": 2335,
      "Ġpri": 2336,
      "elling": 2337,
      "rap": 2338,
      "As": 2339,
      "Ġbegin": 2340,
      "Ġalways": 2341,
      "ĠFebruary": 2342,
      "avor": 2343,
      "Ġdisco": 2344,
      "On": 2345,
      "Ġhalf": 2346,
      "ĠRo": 2347,
      "Ġspeed": 2348,
      "Ġeduc": 2349,
      "Ġsent": 2350,
      "Ġscience": 2351,
      "Ġmodels": 2352,
      "iety": 2353,
      "ges": 2354,
      "Ġareas": 2355,
      "ĠChrist": 2356,
      "Ġweight": 2357,
      "aul": 2358,
      "play": 2359,
      "Ġoutside": 2360,
      "199": 2361,
      "Ġmilitary": 2362,
      "Ġactivities": 2363,
      "stit": 2364,
      "Ġappear": 2365,
      "Ġoil": 2366,
      "Ġgreen": 2367,
      "ashington": 2368,
      "14": 2369,
      "Ġaway": 2370,
      "erous": 2371,
      "Ġdiff": 2372,
      "Ġfinancial": 2373,
      "Â°": 2374,
      "ĠBay": 2375,
      "ĠGold": 2376,
      "ĠDav": 2377,
      "ĠAct": 2378,
      "orthern": 2379,
      "Ġbooks": 2380,
      "Ġstudy": 2381,
      "Ġaverage": 2382,
      "att": 2383,
      "oring": 2384,
      "Ġhours": 2385,
      "ĠAir": 2386,
      "ades": 2387,
      "ĠPres": 2388,
      "Ġvariety": 2389,
      "Ġprotect": 2390,
      "Ġfund": 2391,
      "etic": 2392,
      "aches": 2393,
      "Ġbecom": 2394,
      "Ġunderstand": 2395,
      "Ġneeded": 2396,
      "Ġincrease": 2397,
      "Ġcertain": 2398,
      "Ġinternational": 2399,
      "icult": 2400,
      "Ġconsum": 2401,
      "ĠSec": 2402,
      "li": 2403,
      "icro": 2404,
      "raft": 2405,
      "lymp": 2406,
      "Ġchampionship": 2407,
      "ĠPhil": 2408,
      "Ġarchitect": 2409,
      "Ġsize": 2410,
      "Ġwalk": 2411,
      "ĠMich": 2412,
      "ĠRes": 2413,
      "ĠJames": 2414,
      "ĠĠĠĠ": 2415,
      "Ġglobal": 2416,
      "Ġannoun": 2417,
      "Ġfriends": 2418,
      "mar": 2419,
      "ĠFeder": 2420,
      "Ġcome": 2421,
      "aper": 2422,
      "ube": 2423,
      "Ġprevious": 2424,
      "rated": 2425,
      "Ġlower": 2426,
      "Ġreach": 2427,
      "Ġprop": 2428,
      "Ġestablished": 2429,
      "Ġmakes": 2430,
      "Ġnames": 2431,
      "rad": 2432,
      "ĠMal": 2433,
      "ula": 2434,
      "ĠGreat": 2435,
      "Ġbuy": 2436,
      "ennis": 2437,
      "ument": 2438,
      "Ġcond": 2439,
      "Ġdeath": 2440,
      "Ġmatch": 2441,
      "gar": 2442,
      "Ġcell": 2443,
      "Ġliving": 2444,
      "Ġ192": 2445,
      "Ġlove": 2446,
      "ille": 2447,
      "ĠSer": 2448,
      "ĠTo": 2449,
      "istic": 2450,
      "ĠState": 2451,
      "Ġeconomic": 2452,
      "eter": 2453,
      "illed": 2454,
      "ĠChinese": 2455,
      "Ġscient": 2456,
      "Ġvalue": 2457,
      "Ġwords": 2458,
      "yn": 2459,
      "Ġfast": 2460,
      "Ġdi": 2461,
      "avy": 2462,
      "Ġsound": 2463,
      "Ġgoing": 2464,
      "ĠWhile": 2465,
      "Ġbullet": 2466,
      "Ġincluded": 2467,
      "Ġquick": 2468,
      "Ġdifference": 2469,
      "Ġmiles": 2470,
      "13": 2471,
      "ream": 2472,
      "Ġbir": 2473,
      "ached": 2474,
      "Ġmeans": 2475,
      "Ġanimals": 2476,
      "ĠWith": 2477,
      "Ġveh": 2478,
      "Ġrank": 2479,
      "Ġgoal": 2480,
      "Ġindepend": 2481,
      "Ġthroughout": 2482,
      "eget": 2483,
      "Ġproducts": 2484,
      "Ġsource": 2485,
      "go": 2486,
      "Ġet": 2487,
      "ĠChampionship": 2488,
      "Ġbelow": 2489,
      "Ġauthor": 2490,
      "ores": 2491,
      "Ġsaid": 2492,
      "Ġstep": 2493,
      "Ġincludes": 2494,
      "ĠKingdom": 2495,
      "Ġmagn": 2496,
      "Ġaddition": 2497,
      "Ġroad": 2498,
      "rat": 2499,
      "ĠWashington": 2500,
      "ĠEast": 2501,
      "Ġphysical": 2502,
      "ners": 2503,
      "Ġsold": 2504,
      "ĠApp": 2505,
      "Ġrelations": 2506,
      "ĠRepublic": 2507,
      "na": 2508,
      "ĠAI": 2509,
      "Ġwhy": 2510,
      "ump": 2511,
      "Ġimpact": 2512,
      "Ġski": 2513,
      "Ġhumans": 2514,
      "Ext": 2515,
      "mon": 2516,
      "ÉĻ": 2517,
      "ĠDis": 2518,
      "ĠOpen": 2519,
      "pecially": 2520,
      "ĠNBA": 2521,
      "Ġ2017": 2522,
      "ysis": 2523,
      "Ġmonths": 2524,
      "asks": 2525,
      "ĠRiver": 2526,
      "Ġround": 2527,
      "Ġindividual": 2528,
      "ison": 2529,
      "oud": 2530,
      "Ġplant": 2531,
      "rite": 2532,
      "ification": 2533,
      "itation": 2534,
      "ĠNo": 2535,
      "Ġhigher": 2536,
      "ule": 2537,
      "Ġ0": 2538,
      "ĠMon": 2539,
      "ĠRoman": 2540,
      "Ġattack": 2541,
      "Ġprimary": 2542,
      "Ġsnow": 2543,
      "ĠSl": 2544,
      "Ġsometimes": 2545,
      "Ġtournament": 2546,
      "Ġwidely": 2547,
      "iter": 2548,
      "lement": 2549,
      "ĠMed": 2550,
      "ĠOlymp": 2551,
      "ruction": 2552,
      "Ġpie": 2553,
      "Ġcover": 2554,
      "Ġworking": 2555,
      "augh": 2556,
      "Ġbatter": 2557,
      "Ġrate": 2558,
      "ended": 2559,
      "Ġposition": 2560,
      "Ġterms": 2561,
      "Ġcommunic": 2562,
      "Ġwomen": 2563,
      "Ġfire": 2564,
      "amm": 2565,
      "ĠPol": 2566,
      "Ġdescribed": 2567,
      "ĠSuper": 2568,
      "Extract": 2569,
      "ka": 2570,
      "Ġfeature": 2571,
      "Ġhowever": 2572,
      "Ġminutes": 2573,
      "Ġenvironment": 2574,
      "ele": 2575,
      "Ġtend": 2576,
      "Ġtitle": 2577,
      "Ġofficial": 2578,
      "ien": 2579,
      "ster": 2580,
      "ĠAward": 2581,
      "ĠEn": 2582,
      "Ġmovie": 2583,
      "ĠFrancisco": 2584,
      "Al": 2585,
      "ystem": 2586,
      "Ġtown": 2587,
      "Ġground": 2588,
      "ray": 2589,
      "Ġsequ": 2590,
      "ude": 2591,
      "Ġnovel": 2592,
      "Ġrespons": 2593,
      "..": 2594,
      "Ġbar": 2595,
      "Ġitems": 2596,
      "Ġexc": 2597,
      "Ġ2016": 2598,
      "ĠAsia": 2599,
      "sp": 2600,
      "wide": 2601,
      "antic": 2602,
      "Ġdifficult": 2603,
      "ae": 2604,
      "rup": 2605,
      "ara": 2606,
      "Ġmedia": 2607,
      "Ġdeterm": 2608,
      "Ġice": 2609,
      "Ġmid": 2610,
      "Ġonce": 2611,
      "Ġvac": 2612,
      "Ġnever": 2613,
      "ĠPlay": 2614,
      "ĠCounty": 2615,
      "Ġcard": 2616,
      "leep": 2617,
      "Ġlet": 2618,
      "Ġbasketball": 2619,
      "Ġgrowth": 2620,
      "Ġaud": 2621,
      "Ġvill": 2622,
      "Ġpred": 2623,
      "Ġperformance": 2624,
      "ridge": 2625,
      "iber": 2626,
      "Ġcame": 2627,
      "Ġfig": 2628,
      "Ġdied": 2629,
      "ips": 2630,
      "Ġ2010": 2631,
      "ĠWilliam": 2632,
      "ving": 2633,
      "iment": 2634,
      "ĠBut": 2635,
      "Ġuses": 2636,
      "ean": 2637,
      "anks": 2638,
      "iles": 2639,
      "ctor": 2640,
      "ĠPri": 2641,
      "light": 2642,
      "not": 2643,
      "Ġmass": 2644,
      "Ġhol": 2645,
      "Ġmaintain": 2646,
      "Ġsomething": 2647,
      "Ġtasks": 2648,
      "rest": 2649,
      "Ġwide": 2650,
      "itz": 2651,
      "Ġplants": 2652,
      "Ġcomplex": 2653,
      "ief": 2654,
      "ccording": 2655,
      "Ġformat": 2656,
      "Ġstandard": 2657,
      "ients": 2658,
      "arily": 2659,
      "urb": 2660,
      "ĠPort": 2661,
      "Ġten": 2662,
      "eth": 2663,
      "ference": 2664,
      "ĠVal": 2665,
      "Ġindustry": 2666,
      "SA": 2667,
      "Ġbr": 2668,
      "Ġpark": 2669,
      "Ġtool": 2670,
      "Ġhost": 2671,
      "Ġforce": 2672,
      "irt": 2673,
      "Ġ2011": 2674,
      "Ġcharacters": 2675,
      "Ġassociated": 2676,
      "iol": 2677,
      "nown": 2678,
      "urch": 2679,
      "emb": 2680,
      "resh": 2681,
      "Ġparts": 2682,
      "Ġ2009": 2683,
      "Ġgreatest": 2684,
      "Ġespecially": 2685,
      ".,": 2686,
      "Ġfar": 2687,
      "Ġdom": 2688,
      "uture": 2689,
      "Ġplaces": 2690,
      "Ġmeet": 2691,
      "Ġjob": 2692,
      "Ġ2015": 2693,
      "Ġfeatures": 2694,
      "Ġphot": 2695,
      "Ġdefe": 2696,
      "alt": 2697,
      "aries": 2698,
      "ĠBy": 2699,
      "ĠInternational": 2700,
      "Ġresour": 2701,
      "Ġrain": 2702,
      "ĠComp": 2703,
      "Ġdesigned": 2704,
      "Ġnight": 2705,
      "Ġansw": 2706,
      "ĠDel": 2707,
      "Ġ190": 2708,
      "Ġregular": 2709,
      "ydro": 2710,
      "Ġcase": 2711,
      "osing": 2712,
      "ising": 2713,
      "Ġprote": 2714,
      "eds": 2715,
      "Ġever": 2716,
      "eles": 2717,
      "Ġ22": 2718,
      "ĠDay": 2719,
      "apore": 2720,
      "Ġclaim": 2721,
      "ned": 2722,
      "ona": 2723,
      "Ġfac": 2724,
      "Ġintern": 2725,
      "sequ": 2726,
      "Ġresults": 2727,
      "Ġculture": 2728,
      "Ġintroduced": 2729,
      "king": 2730,
      "lease": 2731,
      "iger": 2732,
      "Ġant": 2733,
      "Ġ25": 2734,
      "Ġveget": 2735,
      "Ġcontain": 2736,
      "Ġfollowed": 2737,
      "Ġtelevision": 2738,
      "AT": 2739,
      "ox": 2740,
      "za": 2741,
      "chan": 2742,
      "Ġconcept": 2743,
      "ocks": 2744,
      "Ġincome": 2745,
      "Ġtraditional": 2746,
      "Ġregard": 2747,
      "Ġ2023": 2748,
      "bur": 2749,
      "wood": 2750,
      "Ġcricket": 2751,
      "amil": 2752,
      "ops": 2753,
      "ĠWestern": 2754,
      "Ġenough": 2755,
      "Ġprinc": 2756,
      "Ġlanguages": 2757,
      "Ġestim": 2758,
      "Ġanimal": 2759,
      "Ġnature": 2760,
      "Ġstyle": 2761,
      "Ġfurther": 2762,
      "Ġbrand": 2763,
      "ĠMex": 2764,
      "astic": 2765,
      "Ġworks": 2766,
      "Ġspend": 2767,
      "ev": 2768,
      "Ġfail": 2769,
      "Ġdig": 2770,
      "opp": 2771,
      "ĠNet": 2772,
      "Ġsym": 2773,
      "ĠPresident": 2774,
      "aff": 2775,
      "eum": 2776,
      "field": 2777,
      "uk": 2778,
      "Ġtheory": 2779,
      "empt": 2780,
      "ĠGrand": 2781,
      "Ġweek": 2782,
      "sel": 2783,
      "ĠDo": 2784,
      "Ġprob": 2785,
      "acific": 2786,
      "ellig": 2787,
      "Ġneg": 2788,
      "Ġgoals": 2789,
      "Ġlocation": 2790,
      "Ġmachine": 2791,
      "Ġrelationship": 2792,
      "oid": 2793,
      "Ġcateg": 2794,
      "utive": 2795,
      "Ġseven": 2796,
      "Ġcharg": 2797,
      "Ġterrit": 2798,
      "Ġlikely": 2799,
      "If": 2800,
      "iation": 2801,
      "zil": 2802,
      "Ġpick": 2803,
      "Ġparent": 2804,
      "Ġbeaut": 2805,
      "Ġcommer": 2806,
      "Ġfruit": 2807,
      "ĠChar": 2808,
      "acy": 2809,
      "ression": 2810,
      "Ġsurface": 2811,
      "ĠGeorge": 2812,
      "21": 2813,
      "cient": 2814,
      "ĠAc": 2815,
      "thing": 2816,
      "Ġrout": 2817,
      "Ġenc": 2818,
      "Ġclose": 2819,
      "iting": 2820,
      "Ġmountain": 2821,
      "Ġkind": 2822,
      "Ġarg": 2823,
      "Ġpriv": 2824,
      "Ġ188": 2825,
      "Ġelectron": 2826,
      "Ġcolor": 2827,
      "Ġlonger": 2828,
      "Ġenter": 2829,
      "like": 2830,
      "Ġsay": 2831,
      "Ġcut": 2832,
      "Ġlost": 2833,
      "ĠSoc": 2834,
      "Ġgre": 2835,
      "ĠPart": 2836,
      "Ġ2008": 2837,
      "Ġ50": 2838,
      "Ġblue": 2839,
      "hi": 2840,
      "yp": 2841,
      "Ġstay": 2842,
      "ĠEmp": 2843,
      "Ġplat": 2844,
      "Ġrecomm": 2845,
      "Ġdise": 2846,
      "Ġflu": 2847,
      "Ġfactors": 2848,
      "Ġanalysis": 2849,
      "orks": 2850,
      "Ġseen": 2851,
      "ĠItal": 2852,
      "oston": 2853,
      "Ġwinning": 2854,
      "Ġsales": 2855,
      "Ġbord": 2856,
      "Ġprevent": 2857,
      "Ġformed": 2858,
      "Ġ1980": 2859,
      "Ġpurch": 2860,
      "Ġfrequ": 2861,
      "ham": 2862,
      "hel": 2863,
      "asc": 2864,
      "astern": 2865,
      "owl": 2866,
      "ĠEm": 2867,
      "Ġexamples": 2868,
      "pper": 2869,
      "Ġabove": 2870,
      "Ġsecurity": 2871,
      "Ġself": 2872,
      "lete": 2873,
      "Ġ24": 2874,
      "Ġmove": 2875,
      "Ġsure": 2876,
      "Ġcompon": 2877,
      "lectric": 2878,
      "ĠUnion": 2879,
      "Ġ2012": 2880,
      "Ġfeet": 2881,
      "Ġ1990": 2882,
      "Ġsubject": 2883,
      "Phone": 2884,
      "Ã¡": 2885,
      "Ġcars": 2886,
      "ĠAb": 2887,
      "lying": 2888,
      "ĠMart": 2889,
      "ĠBill": 2890,
      "estic": 2891,
      "ements": 2892,
      "Ġbread": 2893,
      "ĠAtl": 2894,
      "Ġfruits": 2895,
      "Ġens": 2896,
      "ky": 2897,
      "idence": 2898,
      "ĠMad": 2899,
      "Ġstar": 2900,
      "Ġexpect": 2901,
      "Ġleague": 2902,
      "apt": 2903,
      "Ġdogs": 2904,
      "22": 2905,
      "Where": 2906,
      "back": 2907,
      "Ġcause": 2908,
      "Ġdat": 2909,
      "Ġdate": 2910,
      "Ġ2013": 2911,
      "Ġ2014": 2912,
      "Ġremain": 2913,
      "Ġparticip": 2914,
      "Ġtreat": 2915,
      "Ġreason": 2916,
      "ĠBC": 2917,
      "ĠLa": 2918,
      "Ġsomeone": 2919,
      "ĠJapanese": 2920,
      "Ġcourse": 2921,
      "ĠCong": 2922,
      "rag": 2923,
      "ĠMod": 2924,
      "Ġselect": 2925,
      "Ġgradu": 2926,
      "ĠIsland": 2927,
      "Ġmeaning": 2928,
      "ĠMost": 2929,
      "action": 2930,
      "Ġscreen": 2931,
      "venue": 2932,
      "Ġleading": 2933,
      "Ġgroups": 2934,
      "inal": 2935,
      "atively": 2936,
      "ened": 2937,
      "ĠLake": 2938,
      "Ġattend": 2939,
      "Ġsugg": 2940,
      "Ġpurp": 2941,
      "Ġpractice": 2942,
      "Ġetc": 2943,
      "Ġsuggest": 2944,
      "ĠHol": 2945,
      "ĠHigh": 2946,
      "Ġclos": 2947,
      "Ġactive": 2948,
      "ĠBlack": 2949,
      "Ġallows": 2950,
      "Ġsand": 2951,
      "Ġwent": 2952,
      "Ġmix": 2953,
      "icago": 2954,
      "eleb": 2955,
      "ĠTra": 2956,
      "ĠMet": 2957,
      "Ġshare": 2958,
      "Ġattempt": 2959,
      "Ġlarger": 2960,
      "Ġsmaller": 2961,
      "Ġstructure": 2962,
      "oo": 2963,
      "rast": 2964,
      "uals": 2965,
      "ala": 2966,
      "Ġalthough": 2967,
      "Ġrather": 2968,
      "Ġcoast": 2969,
      "ĠCollege": 2970,
      "Ġcommunity": 2971,
      "Ġtitles": 2972,
      "ĠSingapore": 2973,
      "Ġconditions": 2974,
      "west": 2975,
      "ero": 2976,
      "ership": 2977,
      "Ġcontent": 2978,
      "Ġdefin": 2979,
      "Ġsitu": 2980,
      "ini": 2981,
      "Ġfather": 2982,
      "rote": 2983,
      "Ġreasons": 2984,
      "ĠFl": 2985,
      "Ġchall": 2986,
      "Ġmechan": 2987,
      "Ġdrive": 2988,
      "Ġeconomy": 2989,
      "Ġswim": 2990,
      "nder": 2991,
      "Ġclear": 2992,
      "ĠMany": 2993,
      "Ġability": 2994,
      "Ġ40": 2995,
      "Ġmilk": 2996,
      "Ġbroad": 2997,
      "Ġapprox": 2998,
      "ID": 2999,
      "ĠMy": 3000,
      "Ġmovies": 3001,
      "Ġprocessing": 3002,
      "ength": 3003,
      "Ġannounced": 3004,
      "60": 3005,
      "He": 3006,
      "ha": 3007,
      "anced": 3008,
      "Ġdry": 3009,
      "ĠBer": 3010,
      "ĠFirst": 3011,
      "akers": 3012,
      "Ġcoll": 3013,
      "ĠSpanish": 3014,
      "Ġpositive": 3015,
      "ledge": 3016,
      "Ġliter": 3017,
      "Ġbaseball": 3018,
      "Ġbenefits": 3019,
      "Ġtemperature": 3020,
      "80": 3021,
      "Name": 3022,
      "bon": 3023,
      "eal": 3024,
      "ania": 3025,
      "ĠMe": 3026,
      "ĠPer": 3027,
      "ĠDuring": 3028,
      "ockey": 3029,
      "Ġcentral": 3030,
      "Ġsimple": 3031,
      "Ġcheese": 3032,
      "ography": 3033,
      "ĠItalian": 3034,
      "ya": 3035,
      "Ġson": 3036,
      "Ġsem": 3037,
      "ĠSo": 3038,
      "Ġ2007": 3039,
      "Ġ189": 3040,
      "pite": 3041,
      "Ġtennis": 3042,
      "Ġfuture": 3043,
      "Ġeat": 3044,
      "Ġeast": 3045,
      "ĠFootball": 3046,
      "Ġqual": 3047,
      "Ġautom": 3048,
      "FA": 3049,
      "Write": 3050,
      "ius": 3051,
      "Ġloss": 3052,
      "ston": 3053,
      "ĠAnt": 3054,
      "Ġnuc": 3055,
      "ander": 3056,
      "aken": 3057,
      "Ġoptions": 3058,
      "ux": 3059,
      "Ġtarg": 3060,
      "Ġtakes": 3061,
      "Ġslow": 3062,
      "Ġcou": 3063,
      "Ġcode": 3064,
      "ĠCap": 3065,
      "iff": 3066,
      "Ġ21": 3067,
      "ogle": 3068,
      "Ġinteg": 3069,
      "Ġlittle": 3070,
      "Ġdone": 3071,
      "Ġemer": 3072,
      "ĠOther": 3073,
      "ĠItaly": 3074,
      "ails": 3075,
      "Ġextrem": 3076,
      "cil": 3077,
      "itude": 3078,
      "ĠBoston": 3079,
      "Ġwinter": 3080,
      "ĠQu": 3081,
      "Ġchanges": 3082,
      "Ar": 3083,
      "Ġwest": 3084,
      "esla": 3085,
      "ado": 3086,
      "Ġexec": 3087,
      "Ġspread": 3088,
      "ĠCentral": 3089,
      "ĠEmpire": 3090,
      "Ġcle": 3091,
      "ĠSm": 3092,
      "ĠPacific": 3093,
      "asters": 3094,
      "aps": 3095,
      "Ġrespect": 3096,
      "che": 3097,
      "Ġcred": 3098,
      "Ġfresh": 3099,
      "Ġing": 3100,
      "ĠHaw": 3101,
      "Ġvia": 3102,
      "ĠIts": 3103,
      "ĠSpain": 3104,
      "Ġincreased": 3105,
      "Ġcompetition": 3106,
      "off": 3107,
      "Ġpan": 3108,
      "ĠBu": 3109,
      "Ġalmost": 3110,
      "Ġparty": 3111,
      "Ġboard": 3112,
      "Ġneeds": 3113,
      "ditionally": 3114,
      "Ġentire": 3115,
      "azon": 3116,
      "Ġcheck": 3117,
      "Ġidea": 3118,
      "based": 3119,
      "icles": 3120,
      "irl": 3121,
      "Ġstri": 3122,
      "ĠPat": 3123,
      "Ġforms": 3124,
      "Ġrelated": 3125,
      "Ġrisk": 3126,
      "Ġcry": 3127,
      "Ġmind": 3128,
      "ĠBel": 3129,
      "ĠDem": 3130,
      "Ġcomes": 3131,
      "ocr": 3132,
      "ĠArt": 3133,
      "Ġtransport": 3134,
      "Ġeffic": 3135,
      "Ġfilms": 3136,
      "Ġaffect": 3137,
      "'re": 3138,
      "Ġsleep": 3139,
      "Ġaltern": 3140,
      "ava": 3141,
      "izing": 3142,
      "Ġacqu": 3143,
      "Ġelectrical": 3144,
      "Ġaction": 3145,
      "Ġhydro": 3146,
      "ighb": 3147,
      "ĠChicago": 3148,
      "Ġinstead": 3149,
      "Ġmovement": 3150,
      "ounter": 3151,
      "ĠBrazil": 3152,
      "70": 3153,
      "hol": 3154,
      "ny": 3155,
      "ËĲ": 3156,
      "Ġcop": 3157,
      "Ġwine": 3158,
      "Ġft": 3159,
      "aring": 3160,
      "Ġgolf": 3161,
      "artment": 3162,
      "ibility": 3163,
      "Ġpopul": 3164,
      "Ġcenter": 3165,
      "Ġextract": 3166,
      "Ġapproach": 3167,
      "Ġdeliver": 3168,
      "ademy": 3169,
      "Here": 3170,
      "Ġbird": 3171,
      "Ġdoc": 3172,
      "Ġlat": 3173,
      "ĠPal": 3174,
      "iful": 3175,
      "Ġelements": 3176,
      "ĠiPhone": 3177,
      "Ġeducation": 3178,
      "ĠMichael": 3179,
      "Ġcommercial": 3180,
      "bit": 3181,
      "ford": 3182,
      "Ġsn": 3183,
      "Ġswe": 3184,
      "ĠMil": 3185,
      "Ġheat": 3186,
      "Ġbox": 3187,
      "Ġsquare": 3188,
      "Ġquestion": 3189,
      "minist": 3190,
      "cks": 3191,
      "gent": 3192,
      "Ġpers": 3193,
      "omp": 3194,
      "Ġhor": 3195,
      "ĠTV": 3196,
      "ĠHall": 3197,
      "Ġdeep": 3198,
      "Ġ2000": 3199,
      "Ġprefer": 3200,
      "Ġworldwide": 3201,
      "Ġ2006": 3202,
      "Ġmanagement": 3203,
      "ĠAssoci": 3204,
      "Ġmer": 3205,
      "Ġdam": 3206,
      "ĠDes": 3207,
      "Ġprovides": 3208,
      "selves": 3209,
      "Sh": 3210,
      "val": 3211,
      "istan": 3212,
      "Ġstudents": 3213,
      "set": 3214,
      "Ġmag": 3215,
      "imal": 3216,
      "Ġvict": 3217,
      "Ġmoved": 3218,
      "aker": 3219,
      "ords": 3220,
      "Ġleader": 3221,
      "Ġadvant": 3222,
      "Ġpotential": 3223,
      "ees": 3224,
      "atin": 3225,
      "Ġpen": 3226,
      "Ġey": 3227,
      "vert": 3228,
      "odes": 3229,
      "ĠInc": 3230,
      "rick": 3231,
      "Ġquant": 3232,
      "ought": 3233,
      "ercise": 3234,
      "ĠAngeles": 3235,
      "ira": 3236,
      "known": 3237,
      "pro": 3238,
      "ĠMor": 3239,
      "Ġrules": 3240,
      "ĠStar": 3241,
      "Ġsalt": 3242,
      "Ġproblem": 3243,
      "ands": 3244,
      "Ġheart": 3245,
      "Ġ2004": 3246,
      "ĠMexico": 3247,
      "Ġtable": 3248,
      "Ġtaking": 3249,
      "head": 3250,
      "road": 3251,
      "ĠTur": 3252,
      "utions": 3253,
      "Ġquality": 3254,
      "Ġregions": 3255,
      "Ġdecl": 3256,
      "Ġgetting": 3257,
      "Ġbehind": 3258,
      "Ġtrip": 3259,
      "Ġepis": 3260,
      "Ġcross": 3261,
      "Ġceleb": 3262,
      "Ġneighb": 3263,
      "Ġadded": 3264,
      "Ġlevels": 3265,
      "Ġengineering": 3266,
      "Ġclimate": 3267,
      "Ġlaunched": 3268,
      "rate": 3269,
      "ria": 3270,
      "Ġwatch": 3271,
      "anch": 3272,
      "Ġfight": 3273,
      "arian": 3274,
      "Ġhon": 3275,
      "ils": 3276,
      "Ġstra": 3277,
      "ortun": 3278,
      "Ġadditional": 3279,
      "ĠRec": 3280,
      "ĠQue": 3281,
      "Ġproblems": 3282,
      "Ġapplications": 3283,
      "iate": 3284,
      "Ġess": 3285,
      "ented": 3286,
      "Ġtrained": 3287,
      "Ġrequired": 3288,
      "ĠApple": 3289,
      "35": 3290,
      "ij": 3291,
      "Ġtree": 3292,
      "itan": 3293,
      "Ġeight": 3294,
      "ivity": 3295,
      "Ġsearch": 3296,
      "Ġkil": 3297,
      "exas": 3298,
      "Ġplatform": 3299,
      "FL": 3300,
      "ĠSch": 3301,
      "Ġnut": 3302,
      "Ġgold": 3303,
      "ida": 3304,
      "ache": 3305,
      "rial": 3306,
      "Ġfourth": 3307,
      "Ġelectricity": 3308,
      "ĠGener": 3309,
      "ĠRich": 3310,
      "Ġinstit": 3311,
      "Ġrelease": 3312,
      "ĠHarry": 3313,
      "Ġcaused": 3314,
      "Ġbehav": 3315,
      "Ġreview": 3316,
      "Ġprice": 3317,
      "Ġquickly": 3318,
      "fect": 3319,
      "hold": 3320,
      "writ": 3321,
      "ators": 3322,
      "ĠOff": 3323,
      "ĠReg": 3324,
      "Ġstreng": 3325,
      "Ġprior": 3326,
      "Ġresources": 3327,
      "elligence": 3328,
      "year": 3329,
      "Ġdark": 3330,
      "ĠTour": 3331,
      "oted": 3332,
      "ĠPot": 3333,
      "istics": 3334,
      "ĠLos": 3335,
      "Ġcontribut": 3336,
      "Ġrelig": 3337,
      "craft": 3338,
      "sy": 3339,
      "Ġmom": 3340,
      "ota": 3341,
      "ully": 3342,
      "Ġ27": 3343,
      "Ġfront": 3344,
      "que": 3345,
      "pped": 3346,
      "ĠSeattle": 3347,
      "Ġnumbers": 3348,
      "Ġactivity": 3349,
      "Ġimprove": 3350,
      "24": 3351,
      "65": 3352,
      "fl": 3353,
      "ply": 3354,
      "Ġfit": 3355,
      "ĠTesla": 3356,
      "ĠAwards": 3357,
      "Ġask": 3358,
      "ummer": 3359,
      "ĠGl": 3360,
      "ĠGra": 3361,
      "icken": 3362,
      "Ġphil": 3363,
      "Ġeasy": 3364,
      "ĠCongress": 3365,
      "Ġapproximately": 3366,
      "Based": 3367,
      "yth": 3368,
      "Ġbring": 3369,
      "Ġder": 3370,
      "Ġlif": 3371,
      "ĠNor": 3372,
      "Ġoffice": 3373,
      "Ġhighly": 3374,
      "gypt": 3375,
      "Ġpressure": 3376,
      "Ġdomestic": 3377,
      "aign": 3378,
      "atory": 3379,
      "Ġwarm": 3380,
      "irgin": 3381,
      "Ġconduct": 3382,
      "ĠDr": 3383,
      "Ġrice": 3384,
      "ipment": 3385,
      "Ġunique": 3386,
      "Ġattract": 3387,
      "Ġruns": 3388,
      "NA": 3389,
      "Ġcold": 3390,
      "itor": 3391,
      "Ġlog": 3392,
      "ĠPaul": 3393,
      "ĠRober": 3394,
      "Ġroom": 3395,
      "Ġoriginally": 3396,
      "Ġwild": 3397,
      "Ġitself": 3398,
      "Ġstarting": 3399,
      "Ġorganization": 3400,
      "ĠDavid": 3401,
      "Ġbit": 3402,
      "Ġseasons": 3403,
      "Ġtrad": 3404,
      "Ġthemselves": 3405,
      "Ġdistance": 3406,
      "Ġrequires": 3407,
      "ĠAssociation": 3408,
      "Ġsat": 3409,
      "Ġcup": 3410,
      "orage": 3411,
      "Ġinn": 3412,
      "Ġmention": 3413,
      "abit": 3414,
      "Ġcollege": 3415,
      "Ġremind": 3416,
      "Ġprimarily": 3417,
      "hood": 3418,
      "iences": 3419,
      "ato": 3420,
      "ĠSen": 3421,
      "olk": 3422,
      "ĠCO": 3423,
      "usion": 3424,
      "ĠDon": 3425,
      "Ġking": 3426,
      "Ġimm": 3427,
      "ĠYear": 3428,
      "Ġwhole": 3429,
      "25": 3430,
      "Ġbur": 3431,
      "Ġisland": 3432,
      "Ġglass": 3433,
      "Ġjour": 3434,
      "Ġeggs": 3435,
      "Ġbecoming": 3436,
      "Ġanswer": 3437,
      "over": 3438,
      "Ġcorpor": 3439,
      "Ġwrote": 3440,
      "Ġgas": 3441,
      "aby": 3442,
      "Ġmeat": 3443,
      "Ġprep": 3444,
      "Ġrights": 3445,
      "Ġknowledge": 3446,
      "Can": 3447,
      "Ind": 3448,
      "Ġtou": 3449,
      "Ġfavor": 3450,
      "utch": 3451,
      "ocol": 3452,
      "Ġbutter": 3453,
      "Ġearth": 3454,
      "Ġrecords": 3455,
      "Ġobjects": 3456,
      "Ġtrees": 3457,
      "Ġparticularly": 3458,
      "Ġestimated": 3459,
      ".[": 3460,
      "ening": 3461,
      "elt": 3462,
      "ĠTom": 3463,
      "ĠTexas": 3464,
      "imum": 3465,
      "Ġexercise": 3466,
      "bert": 3467,
      "Ġupon": 3468,
      "Ġquarter": 3469,
      "Ġdrink": 3470,
      "ecause": 3471,
      "',": 3472,
      "ech": 3473,
      "rim": 3474,
      "works": 3475,
      "ola": 3476,
      "Ġstore": 3477,
      "alls": 3478,
      "sec": 3479,
      "ĠOcean": 3480,
      "Ġcomma": 3481,
      "Ġ2005": 3482,
      "Ġskills": 3483,
      "airs": 3484,
      "Ġsoccer": 3485,
      "ĠAmazon": 3486,
      "This": 3487,
      "Ġdebut": 3488,
      "Ġtarget": 3489,
      "Ġingred": 3490,
      "ters": 3491,
      "Ġtask": 3492,
      "erved": 3493,
      "ĠTer": 3494,
      "ĠBest": 3495,
      "Ġalive": 3496,
      "osition": 3497,
      "Ġarr": 3498,
      "Ġprem": 3499,
      "Ġappl": 3500,
      "Ġmathem": 3501,
      "Ġeventually": 3502,
      "ĠGoogle": 3503,
      "Ġdiscover": 3504,
      "ĠAcademy": 3505,
      "cast": 3506,
      "ĠSea": 3507,
      "Ġbeautiful": 3508,
      "23": 3509,
      "ĠBr": 3510,
      "Ġstock": 3511,
      "ĠSte": 3512,
      "Ġcolors": 3513,
      "Ġbirth": 3514,
      "Sp": 3515,
      "hib": 3516,
      "Ġsil": 3517,
      "ĠSov": 3518,
      "ĠChe": 3519,
      "ificial": 3520,
      "Ġagre": 3521,
      "198": 3522,
      "Ġcats": 3523,
      "Ġbal": 3524,
      "ĠArab": 3525,
      "uries": 3526,
      "ĠGreen": 3527,
      "ribution": 3528,
      "ĠAustralian": 3529,
      "ĠGreek": 3530,
      "edy": 3531,
      "icon": 3532,
      "Ġreached": 3533,
      "Ġonline": 3534,
      "Ġvary": 3535,
      "Ġadult": 3536,
      "Ġtrain": 3537,
      "Ġsources": 3538,
      "Ġproperty": 3539,
      "uous": 3540,
      "Ġer": 3541,
      "Ġlength": 3542,
      "Ġnorm": 3543,
      "Ġ28": 3544,
      "ĠEgypt": 3545,
      "Ġtransfer": 3546,
      "Ġ1970": 3547,
      "Ġequipment": 3548,
      "ĠGolden": 3549,
      "Ġdisease": 3550,
      "Ġfeder": 3551,
      "Ġnation": 3552,
      "ĠWood": 3553,
      "Ġtrack": 3554,
      "Ġworked": 3555,
      "Ġ1960": 3556,
      "Ġshows": 3557,
      "Ġrestaur": 3558,
      "ita": 3559,
      "arn": 3560,
      "Ġmess": 3561,
      "ĠSu": 3562,
      "Ġ29": 3563,
      "soft": 3564,
      "ibr": 3565,
      "oved": 3566,
      "cont": 3567,
      "Ġprompt": 3568,
      "Ġreduce": 3569,
      "erve": 3570,
      "enty": 3571,
      "ĠAg": 3572,
      "ĠAp": 3573,
      "idents": 3574,
      "Ġactually": 3575,
      "Ġsolar": 3576,
      "Ġprivate": 3577,
      "wing": 3578,
      "roll": 3579,
      "ĠSim": 3580,
      "ĠCont": 3581,
      "aily": 3582,
      "Ġuseful": 3583,
      "Ġcapt": 3584,
      "Ġexpand": 3585,
      "ĠWhat": 3586,
      "Ġoldest": 3587,
      "Ġ{": 3588,
      "heast": 3589,
      "Ġstage": 3590,
      "unic": 3591,
      "Ġblood": 3592,
      "Ġcurrently": 3593,
      "Ġpercent": 3594,
      "Ġinvolved": 3595,
      "ĠParis": 3596,
      "Ġradio": 3597,
      "dd": 3598,
      "ken": 3599,
      "ook": 3600,
      "ÃŃ": 3601,
      "Ġpow": 3602,
      "Ġmother": 3603,
      "aming": 3604,
      "ĠGame": 3605,
      "Ġextend": 3606,
      "Ġrot": 3607,
      "Ġmusical": 3608,
      "Ġoperating": 3609,
      "Ġcauses": 3610,
      "Ġversion": 3611,
      "Ġparents": 3612,
      "ĠAtlantic": 3613,
      "rease": 3614,
      "ript": 3615,
      "Ġnotes": 3616,
      "ountains": 3617,
      "Ġconsists": 3618,
      "ĠAlthough": 3619,
      "Ġmeasure": 3620,
      "lier": 3621,
      "Ġdomin": 3622,
      "omas": 3623,
      "Ġlines": 3624,
      "ste": 3625,
      "roph": 3626,
      "ĠFire": 3627,
      "ĠFrom": 3628,
      "Ġdeal": 3629,
      "Ġcomplete": 3630,
      "Ġcontact": 3631,
      "Ġcontract": 3632,
      "ĠWhite": 3633,
      "Ġthought": 3634,
      "Ġjoined": 3635,
      "Ġvillage": 3636,
      "Ġchalleng": 3637,
      "Ġclean": 3638,
      "ao": 3639,
      "ura": 3640,
      "isation": 3641,
      "Ġfem": 3642,
      "ĠSant": 3643,
      "ĠMicro": 3644,
      "Ġ187": 3645,
      "Ġremains": 3646,
      "iques": 3647,
      "cent": 3648,
      "cul": 3649,
      "ki": 3650,
      "Ġcand": 3651,
      "Ġbike": 3652,
      "Ġreally": 3653,
      "Ġforces": 3654,
      "Ġ23": 3655,
      "ĠNot": 3656,
      "Ġriver": 3657,
      "Ġkids": 3658,
      "Ġdecision": 3659,
      "Ġbrother": 3660,
      "hester": 3661,
      "Ġrefers": 3662,
      "Ġideas": 3663,
      "Ġlooking": 3664,
      "Ġmethods": 3665,
      "Ġbulleted": 3666,
      "Ġsouthern": 3667,
      "ites": 3668,
      "Ġleaves": 3669,
      "Ġrecorded": 3670,
      "Ġawarded": 3671,
      "Pro": 3672,
      "gor": 3673,
      "Ã³": 3674,
      "Ġsite": 3675,
      "Ġinj": 3676,
      "Ġmill": 3677,
      "asy": 3678,
      "Ġrevenue": 3679,
      "Ġstation": 3680,
      "Ġwhose": 3681,
      "udd": 3682,
      "ĠKore": 3683,
      "izes": 3684,
      "Ġimplement": 3685,
      "Ġelection": 3686,
      "Ġplanet": 3687,
      "ĠClub": 3688,
      "Ġprogramming": 3689,
      "Ġinfluence": 3690,
      "Ġpattern": 3691,
      "house": 3692,
      "ville": 3693,
      "Ġfif": 3694,
      "Ġhous": 3695,
      "istor": 3696,
      "Ġhere": 3697,
      "Ġsea": 3698,
      "riz": 3699,
      "Ġrap": 3700,
      "Ġnumerous": 3701,
      "Ġblock": 3702,
      "Ġsigned": 3703,
      "Ġincreasing": 3704,
      "Ġindividuals": 3705,
      "Ġcompleted": 3706,
      "Ġdigital": 3707,
      "List": 3708,
      "ares": 3709,
      "gest": 3710,
      "tra": 3711,
      "Ġ/": 3712,
      "Ġtaken": 3713,
      "inary": 3714,
      "onst": 3715,
      "Ġsens": 3716,
      "Ġsaw": 3717,
      "Ġcast": 3718,
      "Ġfir": 3719,
      "Ġbond": 3720,
      "Ġdou": 3721,
      "ĠMac": 3722,
      "ĠLL": 3723,
      "arden": 3724,
      "ĠStre": 3725,
      "hess": 3726,
      "Ġeffects": 3727,
      "ĠSoviet": 3728,
      "--": 3729,
      "ili": 3730,
      "ĠSince": 3731,
      "ĠAlex": 3732,
      "Ġnorthern": 3733,
      "ĠMass": 3734,
      "ĠMah": 3735,
      "unt": 3736,
      "actions": 3737,
      "Ġcloud": 3738,
      "Ġcoach": 3739,
      "Ġrecent": 3740,
      "ifying": 3741,
      "Ġaccept": 3742,
      "Ġsimply": 3743,
      "ĠOnce": 3744,
      "ĠMusic": 3745,
      "ground": 3746,
      "nal": 3747,
      "ena": 3748,
      "omes": 3749,
      "imb": 3750,
      "ĠGroup": 3751,
      "ĠDep": 3752,
      "Ġrates": 3753,
      "Ġsugar": 3754,
      "ipl": 3755,
      "Ġ31": 3756,
      "Ġoverall": 3757,
      "oyal": 3758,
      "iking": 3759,
      "Ġnuclear": 3760,
      "Ġkilomet": 3761,
      "For": 3762,
      "can": 3763,
      "rees": 3764,
      "Ġpath": 3765,
      "ĠSystem": 3766,
      "ĠBig": 3767,
      "add": 3768,
      "adium": 3769,
      "iang": 3770,
      "Ġcool": 3771,
      "Ġproduce": 3772,
      "Ġsurround": 3773,
      "ĠFrank": 3774,
      "ĠZeal": 3775,
      "rupt": 3776,
      "ios": 3777,
      "Ġ=": 3778,
      "isp": 3779,
      "Ġdates": 3780,
      "Ġ26": 3781,
      "ampion": 3782,
      "Ġbelong": 3783,
      "ĠBlue": 3784,
      "Ġcontinued": 3785,
      "ĠZealand": 3786,
      "40": 3787,
      "Ġbott": 3788,
      "ĠMo": 3789,
      "ĠMary": 3790,
      "ĠMark": 3791,
      "ĠBas": 3792,
      "ĠEach": 3793,
      "Ġexcept": 3794,
      "ĠInter": 3795,
      "Ġabs": 3796,
      "ĠVirgin": 3797,
      "Ġ60": 3798,
      "Ġdirected": 3799,
      "Ġcourt": 3800,
      "Ġcampaign": 3801,
      "Ġhydrogen": 3802,
      "Ġtast": 3803,
      "ctions": 3804,
      "Ġancient": 3805,
      "aged": 3806,
      "izations": 3807,
      "Ġcontains": 3808,
      "Ġadop": 3809,
      "ressed": 3810,
      "Ġwriting": 3811,
      "force": 3812,
      "Ġprincip": 3813,
      "Ġcit": 3814,
      "Ġfat": 3815,
      "Ġbicy": 3816,
      "Ġtowards": 3817,
      "ett": 3818,
      "adian": 3819,
      "unk": 3820,
      "Ġviol": 3821,
      "Ġappoint": 3822,
      "Ġavoid": 3823,
      "rel": 3824,
      "Ġtom": 3825,
      "istance": 3826,
      "âĢĬ": 3827,
      "Ġ186": 3828,
      "Ġartist": 3829,
      "Ġchem": 3830,
      "Ġdirection": 3831,
      "Ġdirectly": 3832,
      "Ġdevice": 3833,
      "Ġlimited": 3834,
      "itzer": 3835,
      "ocratic": 3836,
      "At": 3837,
      "Ġlab": 3838,
      "ĠTr": 3839,
      "ĠAut": 3840,
      "ceed": 3841,
      "ĠRock": 3842,
      "Ġrule": 3843,
      "Ġuser": 3844,
      "Ġadminist": 3845,
      "ĠThat": 3846,
      "Ġcolon": 3847,
      "Ġemp": 3848,
      "Ġsinger": 3849,
      "Ġretire": 3850,
      "ready": 3851,
      "Ġdescribe": 3852,
      "bed": 3853,
      "ises": 3854,
      "Ġmiddle": 3855,
      "iring": 3856,
      "Ġextinct": 3857,
      "Ġfoods": 3858,
      "Ġinside": 3859,
      "Ġbeginning": 3860,
      "Ġprotein": 3861,
      "ĠPotter": 3862,
      "Ġingredients": 3863,
      "Ġfederal": 3864,
      "cel": 3865,
      "rect": 3866,
      "Ġfarm": 3867,
      "Ġnomin": 3868,
      "Ġspot": 3869,
      "ension": 3870,
      "Ġsurv": 3871,
      "Ġopportun": 3872,
      "ĠDisney": 3873,
      "Ġholid": 3874,
      "Americ": 3875,
      "urs": 3876,
      "Ġanaly": 3877,
      "ĠGal": 3878,
      "Ġusers": 3879,
      "Ġcannot": 3880,
      "Ġnecess": 3881,
      "Ġadj": 3882,
      "ounds": 3883,
      "Ġserve": 3884,
      "ĠRev": 3885,
      "Ġmajority": 3886,
      "Ġallowed": 3887,
      "ĠAfrican": 3888,
      "ackson": 3889,
      "Ġconcern": 3890,
      "ait": 3891,
      "iant": 3892,
      "Ġliqu": 3893,
      "oses": 3894,
      "âĢ¢": 3895,
      "Ġdefined": 3896,
      "Ġopened": 3897,
      "Ġcontinue": 3898,
      "Ġconstit": 3899,
      "Ġsafe": 3900,
      "Ġscientific": 3901,
      "Ġcomponents": 3902,
      "ĠRobert": 3903,
      "OS": 3904,
      "fort": 3905,
      "where": 3906,
      "isions": 3907,
      "ĠPay": 3908,
      "Ġcharge": 3909,
      "rought": 3910,
      "Ġaccording": 3911,
      "Ġsolid": 3912,
      "Ġmulti": 3913,
      "Ġsumm": 3914,
      "ging": 3915,
      "onse": 3916,
      "Ġdead": 3917,
      "ĠJos": 3918,
      "Ġcompared": 3919,
      "Ġdoing": 3920,
      "rug": 3921,
      "Ġdistrict": 3922,
      "Ġmatter": 3923,
      "Ġoperations": 3924,
      "Ġinsp": 3925,
      "Ġsongs": 3926,
      "ĠPeople": 3927,
      "stitute": 3928,
      "Ġresponsible": 3929,
      "EC": 3930,
      "ext": 3931,
      "Ġcases": 3932,
      "Ġdram": 3933,
      "Ġdaily": 3934,
      "omic": 3935,
      "Ġalready": 3936,
      "estival": 3937,
      "Ġ2002": 3938,
      "Ġgrand": 3939,
      "Ġmoving": 3940,
      "ĠParty": 3941,
      "Ġstrength": 3942,
      "à¤": 3943,
      "inter": 3944,
      "Ġlack": 3945,
      "change": 3946,
      "ĠUK": 3947,
      "Ġshape": 3948,
      "izza": 3949,
      "Ġcommit": 3950,
      "Ġflight": 3951,
      "ĠâĢĶ": 3952,
      "Ġphilos": 3953,
      "intend": 3954,
      "org": 3955,
      "Ġpack": 3956,
      "Ġlives": 3957,
      "Ġthing": 3958,
      "ĠCur": 3959,
      "aylor": 3960,
      "aging": 3961,
      "thlet": 3962,
      "ĠWind": 3963,
      "orning": 3964,
      "Ġflat": 3965,
      "Ġexpensive": 3966,
      "Ġalbums": 3967,
      "Ġvehicle": 3968,
      "Ġpurpose": 3969,
      "Bl": 3970,
      "por": 3971,
      "ĉĊ": 3972,
      "ali": 3973,
      "Ġpet": 3974,
      "oul": 3975,
      "ĠBen": 3976,
      "Ġyellow": 3977,
      "unch": 3978,
      "liest": 3979,
      "Ġdocument": 3980,
      "26": 3981,
      "Se": 3982,
      "Ġult": 3983,
      "Ġsau": 3984,
      "Ġislands": 3985,
      "ĠAccording": 3986,
      "Ġthus": 3987,
      "use": 3988,
      "urance": 3989,
      "Ġang": 3990,
      "Ġuniversity": 3991,
      "Ġtechniques": 3992,
      "Ġcontroll": 3993,
      "gorith": 3994,
      "BC": 3995,
      "nes": 3996,
      "pre": 3997,
      "Ġ|": 3998,
      "Ġpaper": 3999,
      "Ġlake": 4000,
      "ĠTime": 4001,
      "ĠCamp": 4002,
      "ĠMoon": 4003,
      "ĠGar": 4004,
      "ĠGod": 4005,
      "Ġunivers": 4006,
      "igned": 4007,
      "Ġphone": 4008,
      "ĠMarvel": 4009,
      "Ġhelps": 4010,
      "Ġprogress": 4011,
      "Ġperformed": 4012,
      "Ġlaws": 4013,
      "lorida": 4014,
      "Ġmanufactur": 4015,
      "Ġrapid": 4016,
      "bre": 4017,
      "Ġsets": 4018,
      "atoes": 4019,
      "ician": 4020,
      "Ġdiet": 4021,
      "ĠSol": 4022,
      "ĠEastern": 4023,
      "Ġoutd": 4024,
      "ikes": 4025,
      "Ġsubsequ": 4026,
      "Ġstudies": 4027,
      "Ġschools": 4028,
      "Ġinvestment": 4029,
      "Ġcombination": 4030,
      "Ġdepends": 4031,
      "Ġmaterials": 4032,
      "ĠHawai": 4033,
      "DP": 4034,
      "Some": 4035,
      "Tube": 4036,
      "eff": 4037,
      "roy": 4038,
      "room": 4039,
      "ĠCE": 4040,
      "raction": 4041,
      "Ġstorage": 4042,
      "berg": 4043,
      "Ġreflect": 4044,
      "Ġdepending": 4045,
      "Ġcritical": 4046,
      "Ġseparated": 4047,
      "Ġensure": 4048,
      "sych": 4049,
      "ĠMicrosoft": 4050,
      "Ġbad": 4051,
      "ĠSong": 4052,
      "Ġvirt": 4053,
      "illing": 4054,
      "ĠJackson": 4055,
      "arts": 4056,
      "Ġ1999": 4057,
      "Ġdegree": 4058,
      "Ġdegrees": 4059,
      "Ġbattery": 4060,
      "list": 4061,
      "wik": 4062,
      "Ġast": 4063,
      "Ġcore": 4064,
      "Ġfant": 4065,
      "Ġfoot": 4066,
      "Ġmax": 4067,
      "ĠSur": 4068,
      "ĠCour": 4069,
      "Ġaspect": 4070,
      "ĠHen": 4071,
      "ĠKh": 4072,
      "eph": 4073,
      "Ġscore": 4074,
      "Ġ80": 4075,
      "Ġnearly": 4076,
      "Ġannual": 4077,
      "ĠRussia": 4078,
      "ĠChristian": 4079,
      "ĠFederer": 4080,
      "ĠCompany": 4081,
      "Ġnegative": 4082,
      "Ġadvantage": 4083,
      "ĠLLM": 4084,
      "itzerland": 4085,
      "VID": 4086,
      "pes": 4087,
      "Ġill": 4088,
      "Ġtur": 4089,
      "atur": 4090,
      "Ġhockey": 4091,
      "Ġframe": 4092,
      "Ġvoc": 4093,
      "ĠLou": 4094,
      "aint": 4095,
      "Ġheavy": 4096,
      "Ġrise": 4097,
      "Ġintelligence": 4098,
      "Ġimmed": 4099,
      "Ġpowerful": 4100,
      "Ġdetect": 4101,
      "Ġgrowing": 4102,
      "ĠCarol": 4103,
      "Ġhealthy": 4104,
      "75": 4105,
      "rd": 4106,
      "ror": 4107,
      "Ġox": 4108,
      "isc": 4109,
      "Ġcam": 4110,
      "edia": 4111,
      "Ġwealth": 4112,
      "Ġ2001": 4113,
      "Ġmatches": 4114,
      "Ġpredict": 4115,
      "Ġdatab": 4116,
      "Ġ?": 4117,
      "ĠĠĊ": 4118,
      "iny": 4119,
      "Ġwins": 4120,
      "Ġfully": 4121,
      "ĠAP": 4122,
      "herlands": 4123,
      "Ġalgorith": 4124,
      "ests": 4125,
      "ĠDist": 4126,
      "book": 4127,
      "Ġsociety": 4128,
      "ĠUSA": 4129,
      "Ġchoose": 4130,
      "Ġreported": 4131,
      "Ġtools": 4132,
      "sen": 4133,
      "Éª": 4134,
      "Ġut": 4135,
      "Ġbag": 4136,
      "icks": 4137,
      "Ġhy": 4138,
      "ĠMer": 4139,
      "ĠMag": 4140,
      "ĠMars": 4141,
      "ĠBang": 4142,
      "elled": 4143,
      "Ġ1998": 4144,
      "Ġreceive": 4145,
      "Ġweeks": 4146,
      "Ġseparate": 4147,
      "ĠValley": 4148,
      "ĠMartin": 4149,
      "lim": 4150,
      "oke": 4151,
      "level": 4152,
      "Ġnar": 4153,
      "ĠBank": 4154,
      "ĠLatin": 4155,
      "iance": 4156,
      "vey": 4157,
      "Ġpeak": 4158,
      "Ġlisted": 4159,
      "Ġ1989": 4160,
      "Ġdistinct": 4161,
      "Ġsingles": 4162,
      "ouncil": 4163,
      "Ġeffective": 4164,
      "Ġresponse": 4165,
      "Ġgrass": 4166,
      "Ġhistorical": 4167,
      "Ġissues": 4168,
      "Ġchampionships": 4169,
      "urban": 4170,
      "Ġrecommend": 4171,
      "ĠStreet": 4172,
      "bing": 4173,
      "gers": 4174,
      "Ġver": 4175,
      "Ġphen": 4176,
      "Ġones": 4177,
      "ĠBh": 4178,
      "Ġfranch": 4179,
      "ĠIntern": 4180,
      "Ġyourself": 4181,
      "Ġju": 4182,
      "Ġjud": 4183,
      "undred": 4184,
      "Ġregul": 4185,
      "Ġarticle": 4186,
      "ĠIslands": 4187,
      "Ġobserv": 4188,
      "ĠPrize": 4189,
      "99": 4190,
      "cles": 4191,
      "Ġmiss": 4192,
      "Ġthous": 4193,
      "Ġ(/": 4194,
      "Ġchicken": 4195,
      "Ġshot": 4196,
      "ordan": 4197,
      "erman": 4198,
      "Ġpolicy": 4199,
      "Ġcultural": 4200,
      "Ġappeared": 4201,
      "Ġeasily": 4202,
      "Ġchanged": 4203,
      "ĠGeorg": 4204,
      "ĠPortug": 4205,
      "Ġefficient": 4206,
      "74": 4207,
      "LA": 4208,
      "Ġtun": 4209,
      "Ġtalk": 4210,
      "onald": 4211,
      "Ġcards": 4212,
      "ingu": 4213,
      "eld": 4214,
      "ĠBowl": 4215,
      "hers": 4216,
      "ighter": 4217,
      "While": 4218,
      "iano": 4219,
      "ensus": 4220,
      "Ġoutput": 4221,
      "Ġsynt": 4222,
      "Ġnews": 4223,
      "Ġfinished": 4224,
      "Ġmetal": 4225,
      "what": 4226,
      "Ġreturned": 4227,
      "Ġlayer": 4228,
      "Ġmentioned": 4229,
      "ĠCOVID": 4230,
      "64": 4231,
      "Un": 4232,
      "mosp": 4233,
      "Ġbran": 4234,
      "ĠSouthern": 4235,
      "ĠMountain": 4236,
      "ads": 4237,
      "ĠFlorida": 4238,
      "ĠDiv": 4239,
      "Ġintended": 4240,
      "Ġweap": 4241,
      "Ġ500": 4242,
      "Ġoffers": 4243,
      "Ġearlier": 4244,
      "Ġfounder": 4245,
      "Ġgeneration": 4246,
      "Ġheadqu": 4247,
      "Ġoppon": 4248,
      "Ġofficially": 4249,
      "Ġinitial": 4250,
      "ĠSecond": 4251,
      "Ġarchitecture": 4252,
      "Ġpieces": 4253,
      "Ġsweet": 4254,
      "'m": 4255,
      "Ġface": 4256,
      "Ġfix": 4257,
      "Ġfaster": 4258,
      "ĠServ": 4259,
      "istry": 4260,
      "ĠRam": 4261,
      "Ġvot": 4262,
      "Ġrail": 4263,
      "Ġraised": 4264,
      "ario": 4265,
      "Ġ1997": 4266,
      "Ġsupply": 4267,
      "Ġmedical": 4268,
      "Ġbasic": 4269,
      "aska": 4270,
      "Ġturned": 4271,
      "Ġvehicles": 4272,
      "ĠOlympics": 4273,
      "Ġregarded": 4274,
      "Ġmathemat": 4275,
      "yles": 4276,
      "olic": 4277,
      "Ġstories": 4278,
      "ĠPers": 4279,
      "ĠLaw": 4280,
      "Ġplays": 4281,
      "phone": 4282,
      "athon": 4283,
      "cohol": 4284,
      "Ġlongest": 4285,
      "ĠJohnson": 4286,
      "Ġcritic": 4287,
      "fficient": 4288,
      "stein": 4289,
      "\")": 4290,
      "rons": 4291,
      "ĠÃ": 4292,
      "ĠÂ°": 4293,
      "Ġcounter": 4294,
      "Ġdried": 4295,
      "iling": 4296,
      "ĠSam": 4297,
      "Ġmob": 4298,
      "alled": 4299,
      "ription": 4300,
      "ĠOver": 4301,
      "Ġperfect": 4302,
      "Ġinstruct": 4303,
      "ĠArmy": 4304,
      "Ġgrav": 4305,
      "Ġdirector": 4306,
      "Ġbelieve": 4307,
      "ATO": 4308,
      "Ġelectronic": 4309,
      "Ġreminders": 4310,
      "28": 4311,
      "II": 4312,
      "oles": 4313,
      "ĠCons": 4314,
      "ĠCivil": 4315,
      "Ġincorpor": 4316,
      "Ġspeech": 4317,
      "anchester": 4318,
      "ĠSwift": 4319,
      "Ġbelieved": 4320,
      "intendo": 4321,
      "To": 4322,
      "equ": 4323,
      "ffer": 4324,
      "mark": 4325,
      "yani": 4326,
      "inks": 4327,
      "Ġwife": 4328,
      "etts": 4329,
      "Ġgar": 4330,
      "ĠMiddle": 4331,
      "ĠRome": 4332,
      "ĠNFL": 4333,
      "Ġkit": 4334,
      "aka": 4335,
      "Ġsoon": 4336,
      "Ġinvented": 4337,
      "Ġdriving": 4338,
      "Ġachieve": 4339,
      "ĠNetherlands": 4340,
      "American": 4341,
      "rey": 4342,
      "Ġgain": 4343,
      "Ġgave": 4344,
      "iders": 4345,
      "Ġforward": 4346,
      "abet": 4347,
      "Ġheav": 4348,
      "rier": 4349,
      "ĠOl": 4350,
      "ricult": 4351,
      "Ġ2003": 4352,
      "ologies": 4353,
      "Ġcarry": 4354,
      "Ġcarbon": 4355,
      "Ġvolume": 4356,
      "Ġindependent": 4357,
      "Ġgreater": 4358,
      "Ġretirement": 4359,
      "fin": 4360,
      "pass": 4361,
      "Ġwear": 4362,
      "ĠDutch": 4363,
      "Ġatmosp": 4364,
      "ĠThomas": 4365,
      "Ġrob": 4366,
      "Ġspect": 4367,
      "Ġelected": 4368,
      "Ġattention": 4369,
      "Ġwinner": 4370,
      "ĠYouTube": 4371,
      "Ġhardware": 4372,
      "Ġdivided": 4373,
      "Ġranked": 4374,
      "ĠCharles": 4375,
      "Ġfavorite": 4376,
      "Ġapplied": 4377,
      "Please": 4378,
      "Ġsell": 4379,
      "Ġmorning": 4380,
      "Ġthreat": 4381,
      "ĠBol": 4382,
      "ĠGr": 4383,
      "ĠDC": 4384,
      "ĠLuc": 4385,
      "Ġexact": 4386,
      "ĠJava": 4387,
      "range": 4388,
      "Ġtrade": 4389,
      "Ġwebs": 4390,
      "Ġindic": 4391,
      "Ġhelped": 4392,
      "Ġdevices": 4393,
      "Ġdemand": 4394,
      "ĠOffice": 4395,
      "Ġtouch": 4396,
      "uff": 4397,
      "Ġ,": 4398,
      "Ġawards": 4399,
      "Ġocean": 4400,
      "edic": 4401,
      "Ġdin": 4402,
      "Ġrepe": 4403,
      "ĠPrem": 4404,
      "Ġvote": 4405,
      "abilities": 4406,
      "achus": 4407,
      "Ġago": 4408,
      "Ġeastern": 4409,
      "Ġconstruction": 4410,
      "Ġcustomer": 4411,
      ");": 4412,
      "34": 4413,
      "Des": 4414,
      "PT": 4415,
      "ga": 4416,
      "ipe": 4417,
      "ties": 4418,
      "war": 4419,
      "Ġcorn": 4420,
      "also": 4421,
      "Ġfiction": 4422,
      "Ġbrain": 4423,
      "Ġpizza": 4424,
      "Ġbeach": 4425,
      "ession": 4426,
      "Ġnote": 4427,
      "Ġspent": 4428,
      "Ġscored": 4429,
      "obe": 4430,
      "Ġ1991": 4431,
      "Ġolder": 4432,
      "Ġholds": 4433,
      "Ġemployees": 4434,
      "Ġbehavior": 4435,
      "Ġfifth": 4436,
      "een": 4437,
      "rm": 4438,
      "right": 4439,
      "view": 4440,
      "wind": 4441,
      "Ġwestern": 4442,
      "ora": 4443,
      "Ġbed": 4444,
      "lec": 4445,
      "ĠSummer": 4446,
      "Ġgod": 4447,
      "Ġbeg": 4448,
      "ĠNorthern": 4449,
      "uster": 4450,
      "Ġindex": 4451,
      "Ġwrite": 4452,
      "Ġeveryone": 4453,
      "Ġinstruments": 4454,
      "rizona": 4455,
      "het": 4456,
      "ati": 4457,
      "nds": 4458,
      "enced": 4459,
      "Ġbaby": 4460,
      "uts": 4461,
      "ĠPan": 4462,
      "emon": 4463,
      "ĠFI": 4464,
      "ĠFer": 4465,
      "ĠDan": 4466,
      "Ġworth": 4467,
      "Ġspring": 4468,
      "oken": 4469,
      "Ġmostly": 4470,
      "rency": 4471,
      "Ġvisual": 4472,
      "Ġconstruct": 4473,
      "Ġlegal": 4474,
      "Ġquestions": 4475,
      "Ġsafety": 4476,
      "Ġsauce": 4477,
      "achusetts": 4478,
      ",\"": 4479,
      "ER": 4480,
      "Pl": 4481,
      "kes": 4482,
      "met": 4483,
      "vis": 4484,
      "water": 4485,
      "Ġbanks": 4486,
      "Ġdoll": 4487,
      "iled": 4488,
      "Ġgot": 4489,
      "imate": 4490,
      "ĠMont": 4491,
      "ĠMasters": 4492,
      "odies": 4493,
      "ĠNintendo": 4494,
      "Ġscale": 4495,
      "Ġfeed": 4496,
      "Ġmemory": 4497,
      "Ġoccurs": 4498,
      "Ġforest": 4499,
      "Ġcommunication": 4500,
      "ĠGeneral": 4501,
      "29": 4502,
      "vin": 4503,
      "vest": 4504,
      "Ġ:": 4505,
      "Ġtru": 4506,
      "eration": 4507,
      "eria": 4508,
      "arry": 4509,
      "leg": 4510,
      "ompl": 4511,
      "ĠSal": 4512,
      "urt": 4513,
      "ĠHum": 4514,
      "ĠDog": 4515,
      "rian": 4516,
      "riend": 4517,
      "ishing": 4518,
      "Ġimpl": 4519,
      "ĠAlso": 4520,
      "Ġevidence": 4521,
      "Ġboat": 4522,
      "Ġartificial": 4523,
      "Ġbattle": 4524,
      "ĠCanadian": 4525,
      "ĠSwitzerland": 4526,
      "Ġvegetables": 4527,
      "Ġdefinition": 4528,
      "Ġdamage": 4529,
      "IS": 4530,
      "cies": 4531,
      "Ġpil": 4532,
      "oura": 4533,
      "ĠMat": 4534,
      "ĠGames": 4535,
      "ĠNad": 4536,
      "ĠStrat": 4537,
      "ĠVis": 4538,
      "Ġaccompl": 4539,
      "Ġsky": 4540,
      "Ġdistribution": 4541,
      "ĠAnother": 4542,
      "Ġprocesses": 4543,
      "Ġdivision": 4544,
      "Ġchoice": 4545,
      "ĠOlympic": 4546,
      "Ġprobably": 4547,
      "Ġera": 4548,
      "atives": 4549,
      "Ġgirl": 4550,
      "ĠInt": 4551,
      "ĠMax": 4552,
      "ĠDie": 4553,
      "ĠData": 4554,
      "Ġheight": 4555,
      "Ġrub": 4556,
      "Ġcomposed": 4557,
      "ounded": 4558,
      "Ġscen": 4559,
      "Ġpassed": 4560,
      "Ġ1950": 4561,
      "Ġmachines": 4562,
      "Ġfemale": 4563,
      "Ġliquid": 4564,
      "500": 4565,
      "orial": 4566,
      "Ġhole": 4567,
      "Ġreb": 4568,
      "Ġstop": 4569,
      "ĠHy": 4570,
      "ĠHot": 4571,
      "ĠJordan": 4572,
      "rief": 4573,
      "ĠOs": 4574,
      "rows": 4575,
      "Ġhimself": 4576,
      "Ġprograms": 4577,
      "Ġapplication": 4578,
      "Ġcustomers": 4579,
      "Ġsteps": 4580,
      "Ġdetermine": 4581,
      "Ġborder": 4582,
      "ĠQueen": 4583,
      "ĠMassachusetts": 4584,
      "Ġsummary": 4585,
      "New": 4586,
      "iers": 4587,
      "rish": 4588,
      "Ġtall": 4589,
      "Ġbra": 4590,
      "asion": 4591,
      "Ġdang": 4592,
      "ĠTamil": 4593,
      "Ġgrew": 4594,
      "ĠMach": 4595,
      "ĠMiss": 4596,
      "ĠBell": 4597,
      "ĠWars": 4598,
      "Ġmoon": 4599,
      "ĠJust": 4600,
      "ĠUse": 4601,
      "Ġshoot": 4602,
      "Ġupd": 4603,
      "Ġfollows": 4604,
      "Ġproviding": 4605,
      "Ġdriver": 4606,
      "Ġobtain": 4607,
      "enez": 4608,
      "Ġbrown": 4609,
      "Ġinflation": 4610,
      "Ġoption": 4611,
      "ĠMuseum": 4612,
      "Ġcreating": 4613,
      "ĠSeries": 4614,
      "Ġterritory": 4615,
      "Ġdiscovered": 4616,
      "uis": 4617,
      "Ġbrought": 4618,
      "Ġpal": 4619,
      "Ġlink": 4620,
      "ĠManchester": 4621,
      "ĠBro": 4622,
      "ĠBecause": 4623,
      "Ġyet": 4624,
      "osite": 4625,
      "ĠWater": 4626,
      "Ġrang": 4627,
      "ĠUs": 4628,
      "Ġtea": 4629,
      "ĠInst": 4630,
      "Ġspir": 4631,
      "Ġload": 4632,
      "ĠEngine": 4633,
      "Ġclasses": 4634,
      "ributed": 4635,
      "Ġdefeated": 4636,
      "Ġpowers": 4637,
      "Ġbicycle": 4638,
      "'ve": 4639,
      "Ex": 4640,
      "lon": 4641,
      "more": 4642,
      "Ġ.": 4643,
      "Ġchess": 4644,
      "oma": 4645,
      "amin": 4646,
      "ĠAre": 4647,
      "ulf": 4648,
      "umn": 4649,
      "ĠDen": 4650,
      "Ġrat": 4651,
      "arters": 4652,
      "Ġabilities": 4653,
      "ĠChurch": 4654,
      "Ġcontext": 4655,
      "ĠViet": 4656,
      "Ġdecided": 4657,
      "ĠSpace": 4658,
      "Ġended": 4659,
      "Ġallowing": 4660,
      "ĠSwed": 4661,
      "Ġforeign": 4662,
      "Ġreplaced": 4663,
      "Ġdiscovery": 4664,
      "Ġpreviously": 4665,
      "After": 4666,
      "iest": 4667,
      "wise": 4668,
      "zz": 4669,
      "Ã¶": 4670,
      "Ġban": 4671,
      "omics": 4672,
      "Ġhar": 4673,
      "used": 4674,
      "ĠRob": 4675,
      "illa": 4676,
      "ĠJack": 4677,
      "Ġracing": 4678,
      "tainment": 4679,
      "Ġartists": 4680,
      "Ġwriter": 4681,
      "Ġ90": 4682,
      "rump": 4683,
      "Ġopening": 4684,
      "Ġtrue": 4685,
      "Ġbiggest": 4686,
      "Ġinitially": 4687,
      "ĠCourt": 4688,
      "och": 4689,
      "inn": 4690,
      "reland": 4691,
      "Ġfer": 4692,
      "Ġdrop": 4693,
      "Ġuniverse": 4694,
      "Ġprec": 4695,
      "Ġearliest": 4696,
      "Ġ1992": 4697,
      "Ġbreed": 4698,
      "Ġnetworks": 4699,
      "ĠGovern": 4700,
      "Ġestablish": 4701,
      "Ġfeatured": 4702,
      "enezuel": 4703,
      "32": 4704,
      "77": 4705,
      "AS": 4706,
      "Be": 4707,
      "ih": 4708,
      "iately": 4709,
      "larg": 4710,
      "me": 4711,
      "Ġop": 4712,
      "Ġsense": 4713,
      "uth": 4714,
      "ĠBur": 4715,
      "Ġstars": 4716,
      "ĠFilm": 4717,
      "ĠNATO": 4718,
      "ĠLord": 4719,
      "Ġride": 4720,
      "ĠInstitute": 4721,
      "Ġrare": 4722,
      "Inc": 4723,
      "ĠArch": 4724,
      "ender": 4725,
      "Ġ1983": 4726,
      "Ġstarts": 4727,
      "Ġbuildings": 4728,
      "Ġcycle": 4729,
      "'ll": 4730,
      "men": 4731,
      "such": 4732,
      "Ġfine": 4733,
      "Ġbreat": 4734,
      "ione": 4735,
      "otic": 4736,
      "ĠHill": 4737,
      "ĠJo": 4738,
      "Ġplaced": 4739,
      "Ġleave": 4740,
      "Ġprint": 4741,
      "Ġtransl": 4742,
      "Ġconflic": 4743,
      "Ġpaint": 4744,
      "Ġcooking": 4745,
      "Ġmotion": 4746,
      "Ġsymb": 4747,
      "Ġswimming": 4748,
      "->": 4749,
      "ilies": 4750,
      "Ġgraph": 4751,
      "ĠCat": 4752,
      "agon": 4753,
      "umber": 4754,
      "Ġsecret": 4755,
      "Ġ1996": 4756,
      "Ġdrum": 4757,
      "ĠSwiss": 4758,
      "Ġequal": 4759,
      "Ġoptim": 4760,
      "Ġexisting": 4761,
      "Ġconsumption": 4762,
      "Ġextremely": 4763,
      "ĠDemocratic": 4764,
      "ĠRichard": 4765,
      "ĠLouis": 4766,
      "38": 4767,
      "39": 4768,
      "MS": 4769,
      "ying": 4770,
      "rec": 4771,
      "isl": 4772,
      "ĠTem": 4773,
      "Ġnations": 4774,
      "raw": 4775,
      "uments": 4776,
      "ĠFord": 4777,
      "ĠNob": 4778,
      "ĠLast": 4779,
      "ĠUp": 4780,
      "izens": 4781,
      "ously": 4782,
      "Ġ35": 4783,
      "Ġpromin": 4784,
      "ollowing": 4785,
      "Ġlocations": 4786,
      "Ġ1994": 4787,
      "Ġemot": 4788,
      "Ġparam": 4789,
      "Ġliterature": 4790,
      "ĠRecords": 4791,
      "ĠInternet": 4792,
      "One": 4793,
      "Pal": 4794,
      "aud": 4795,
      "Äģ": 4796,
      "Ġsus": 4797,
      "Ġren": 4798,
      "ĠMem": 4799,
      "ĠFour": 4800,
      "oga": 4801,
      "ipedia": 4802,
      "Ġspl": 4803,
      "rones": 4804,
      "named": 4805,
      "Ġreplace": 4806,
      "Ġbecomes": 4807,
      "Ġindependence": 4808,
      "Ġbottom": 4809,
      "Ġnecessary": 4810,
      "ĠHenry": 4811,
      "FC": 4812,
      "bl": 4813,
      "part": 4814,
      "rong": 4815,
      "Ġurban": 4816,
      "Ġathlet": 4817,
      "Ġsav": 4818,
      "Ġcru": 4819,
      "esh": 4820,
      "Ġtow": 4821,
      "ĠArizona": 4822,
      "Ġnick": 4823,
      "imin": 4824,
      "igan": 4825,
      "ĠHere": 4826,
      "ĠRoyal": 4827,
      "ĠWal": 4828,
      "Ġchief": 4829,
      "Ġchampion": 4830,
      "ĠKenn": 4831,
      "Ġunit": 4832,
      "Ġroll": 4833,
      "endar": 4834,
      "Ġstudied": 4835,
      "ropol": 4836,
      "ĠScott": 4837,
      "Ġaccounts": 4838,
      "Ġfranchise": 4839,
      "ĠPremier": 4840,
      "67": 4841,
      "We": 4842,
      "ault": 4843,
      "uge": 4844,
      "Ġcris": 4845,
      "Ġinput": 4846,
      "Ġrent": 4847,
      "term": 4848,
      "ĠForm": 4849,
      "Ġrul": 4850,
      "ĠOut": 4851,
      "Ġclosed": 4852,
      "place": 4853,
      "Ġdisp": 4854,
      "Ġpron": 4855,
      "ansion": 4856,
      "oys": 4857,
      "Ġagg": 4858,
      "Ġcenturies": 4859,
      "Ġmarried": 4860,
      "Ġesc": 4861,
      "Ġachieved": 4862,
      "Ġtransportation": 4863,
      "Ġmoment": 4864,
      "Ġcandid": 4865,
      "ĠDistrict": 4866,
      "And": 4867,
      "All": 4868,
      "According": 4869,
      "VP": 4870,
      "oom": 4871,
      "arl": 4872,
      "Ġmel": 4873,
      "asp": 4874,
      "Ġhun": 4875,
      "Ġeth": 4876,
      "ĠCouncil": 4877,
      "Ġstyles": 4878,
      "Ġwhom": 4879,
      "ĠHu": 4880,
      "ĠWil": 4881,
      "Ġmolec": 4882,
      "Ġcontrast": 4883,
      "ĠVenezuel": 4884,
      "luding": 4885,
      "Ġsubst": 4886,
      "Ġacid": 4887,
      "Ġowner": 4888,
      "Ġincreases": 4889,
      "Ġhands": 4890,
      "Ġmanager": 4891,
      "ĠCenter": 4892,
      "Ġcorrect": 4893,
      "Ġmotor": 4894,
      "Ġmeeting": 4895,
      "isphere": 4896,
      "PS": 4897,
      "Yes": 4898,
      "oice": 4899,
      "Ġpit": 4900,
      "Ġinh": 4901,
      "ĠSand": 4902,
      "Ġnative": 4903,
      "Ġcomfort": 4904,
      "ĠJim": 4905,
      "Ġchain": 4906,
      "ĠStud": 4907,
      "isms": 4908,
      "Ġparks": 4909,
      "ancy": 4910,
      "Ġowned": 4911,
      "Ġdraw": 4912,
      "Ġmanufacturing": 4913,
      "ĠGreece": 4914,
      "Ġunderstanding": 4915,
      "Ġcells": 4916,
      "Ġroute": 4917,
      "Ġimmediately": 4918,
      "ĠCarolina": 4919,
      "37": 4920,
      "CC": 4921,
      "vant": 4922,
      "Ġaim": 4923,
      "Ġsen": 4924,
      "Ġbill": 4925,
      "inger": 4926,
      "Ġhour": 4927,
      "Ġhabit": 4928,
      "ĠCor": 4929,
      "ĠBoth": 4930,
      "ulated": 4931,
      "ĠGen": 4932,
      "ĠUber": 4933,
      "Ġship": 4934,
      "Ġroles": 4935,
      "Ġtwice": 4936,
      "Ġtypical": 4937,
      "Ġpopularity": 4938,
      "Ġextra": 4939,
      "Ġbasis": 4940,
      "Ġclassified": 4941,
      "Ġissue": 4942,
      "aughter": 4943,
      "ĠVirginia": 4944,
      "Ġphenomen": 4945,
      "down": 4946,
      "hand": 4947,
      "lam": 4948,
      "yond": 4949,
      "Ã¨": 4950,
      "aling": 4951,
      "Ġharm": 4952,
      "ĠTor": 4953,
      "ĠBet": 4954,
      "ĠBul": 4955,
      "emic": 4956,
      "ĠRet": 4957,
      "ategy": 4958,
      "aped": 4959,
      "Ġkilled": 4960,
      "Ġspoken": 4961,
      "ribe": 4962,
      "Ġassist": 4963,
      "Ġgoods": 4964,
      "Ġserving": 4965,
      "ropri": 4966,
      "Ġclassical": 4967,
      "Ġvalues": 4968,
      "Ġstrategy": 4969,
      "iament": 4970,
      "Ġvacation": 4971,
      "Ġfrequently": 4972,
      "Ġeyes": 4973,
      "Ġdatabase": 4974,
      "88": 4975,
      "BS": 4976,
      "citation": 4977,
      "ras": 4978,
      "inet": 4979,
      "Ġwat": 4980,
      "Ġbrief": 4981,
      "Ġmac": 4982,
      "ĠAv": 4983,
      "ĠIreland": 4984,
      "ĠBattle": 4985,
      "ested": 4986,
      "ĠFA": 4987,
      "Ġvice": 4988,
      "Ġplastic": 4989,
      "Ġrelatively": 4990,
      "Ġ1995": 4991,
      "Ġcreation": 4992,
      "Ġends": 4993,
      "Ġsett": 4994,
      "Ġpurs": 4995,
      "Ġaddress": 4996,
      "Ġidentify": 4997,
      "Ġchemical": 4998,
      "45": 4999,
      "band": 5000,
      "well": 5001,
      "ĠCam": 5002,
      "ĠCricket": 5003,
      "ĠIce": 5004,
      "ersey": 5005,
      "adel": 5006,
      "ĠTheir": 5007,
      "una": 5008,
      "Ġalcohol": 5009,
      "Ġconsec": 5010,
      "ĠDi": 5011,
      "osis": 5012,
      "ĠLand": 5013,
      "Ġrh": 5014,
      "Ġweights": 5015,
      "aseball": 5016,
      "Ġgoes": 5017,
      "Ġmuseum": 5018,
      "Ġlargely": 5019,
      "Ġsetting": 5020,
      "Ġoccup": 5021,
      "Ġstands": 5022,
      "Ġreduced": 5023,
      "Ġdiscuss": 5024,
      "Ġlaunch": 5025,
      "Ġtrying": 5026,
      "Ġdestroy": 5027,
      "...": 5028,
      "Ġalternative": 5029,
      "lines": 5030,
      "vement": 5031,
      "inations": 5032,
      "Ġhundred": 5033,
      "Ġlic": 5034,
      "Ġgarden": 5035,
      "Ġbeans": 5036,
      "ĠBrown": 5037,
      "Ġorange": 5038,
      "Ġsection": 5039,
      "Ġdecades": 5040,
      "Ġcapac": 5041,
      "ashion": 5042,
      "azz": 5043,
      "box": 5044,
      "ĠYoung": 5045,
      "Ġ1965": 5046,
      "Ġmedium": 5047,
      "Ġdoesn": 5048,
      "ĠFinals": 5049,
      "ĠBook": 5050,
      "Ġdemonst": 5051,
      "ĠTwo": 5052,
      "Ġacquired": 5053,
      "ython": 5054,
      "ibrary": 5055,
      "fish": 5056,
      "liament": 5057,
      "rates": 5058,
      "upp": 5059,
      "vation": 5060,
      "orter": 5061,
      "arks": 5062,
      "Ġden": 5063,
      "Ġthr": 5064,
      "Ġgiving": 5065,
      "Ġcoming": 5066,
      "Ġsuffer": 5067,
      "ĠOld": 5068,
      "Ġneural": 5069,
      "ĠKe": 5070,
      "Ġdisplay": 5071,
      "2019": 5072,
      "ĠAsian": 5073,
      "Ġ1993": 5074,
      "Ġmainly": 5075,
      "ĠColumb": 5076,
      "Ġadvanced": 5077,
      "ĠBritain": 5078,
      "Ġfields": 5079,
      "Ġclubs": 5080,
      "Ġrecognition": 5081,
      "ophy": 5082,
      "Ġvictory": 5083,
      "ĠDivision": 5084,
      "Ġmobile": 5085,
      "89": 5086,
      "ais": 5087,
      "Ġpsych": 5088,
      "Ġgained": 5089,
      "unction": 5090,
      "ĠJones": 5091,
      "ĠJeff": 5092,
      "earch": 5093,
      "hesis": 5094,
      "Ġnearby": 5095,
      "Ġoccurred": 5096,
      "Ġrecognized": 5097,
      "ĠFederal": 5098,
      "Ġkilometres": 5099,
      "iro": 5100,
      "iable": 5101,
      "Ġtim": 5102,
      "alle": 5103,
      "Ġbow": 5104,
      "Ġdrug": 5105,
      "imens": 5106,
      "ĠHem": 5107,
      "ĠFound": 5108,
      "acing": 5109,
      "ĠJoe": 5110,
      "ranean": 5111,
      "Ġspin": 5112,
      "Ġuns": 5113,
      "Ġdoor": 5114,
      "Ġdishes": 5115,
      "othing": 5116,
      "Ġfamilies": 5117,
      "Ġ1985": 5118,
      "Ġ70": 5119,
      "ĠAdditionally": 5120,
      "Ġstreet": 5121,
      "Ġidentified": 5122,
      "Ġcalcul": 5123,
      "Ġlimit": 5124,
      "Ġcollection": 5125,
      "Ġrequirements": 5126,
      "Ġsympt": 5127,
      "Ġexpected": 5128,
      "Ġsandw": 5129,
      "Ġcredit": 5130,
      "Ġnormal": 5131,
      "Ġappointed": 5132,
      "ĠGeorgia": 5133,
      "DA": 5134,
      "John": 5135,
      "miss": 5136,
      "Ġwoman": 5137,
      "iced": 5138,
      "Ġgets": 5139,
      "ĠThen": 5140,
      "ager": 5141,
      "Ġcondition": 5142,
      "ĠGood": 5143,
      "ĠWall": 5144,
      "Ġteach": 5145,
      "ears": 5146,
      "Ġtraffic": 5147,
      "Ġarts": 5148,
      "ailed": 5149,
      "Ġexplain": 5150,
      "Ġconstant": 5151,
      "Ġinfluential": 5152,
      "Ġconnected": 5153,
      "Ġprojects": 5154,
      "Ġskiing": 5155,
      "burg": 5156,
      "rophy": 5157,
      "largest": 5158,
      "ba": 5159,
      "Ġovers": 5160,
      "Ġwick": 5161,
      "ittle": 5162,
      "Ġbud": 5163,
      "Ġmicro": 5164,
      "Ġdish": 5165,
      "Ġdiverse": 5166,
      "entially": 5167,
      "Ġlabor": 5168,
      "stone": 5169,
      "Ġeating": 5170,
      "ctic": 5171,
      "Ġnine": 5172,
      "ĠMount": 5173,
      "ĠBeng": 5174,
      "Ġstru": 5175,
      "ĠDu": 5176,
      "anda": 5177,
      "Ġsuit": 5178,
      "ĠUt": 5179,
      "Ġneut": 5180,
      "Ġcompris": 5181,
      "Ġunits": 5182,
      "Ġrecip": 5183,
      "Ġleadership": 5184,
      "Ġplanning": 5185,
      "ĠAdams": 5186,
      "Ġparticles": 5187,
      "Ġadvance": 5188,
      "Ġpresidential": 5189,
      "Ġbenefit": 5190,
      "Ġjoin": 5191,
      "Ġwalking": 5192,
      "iterranean": 5193,
      "opping": 5194,
      "Ġstraight": 5195,
      "Ġjournal": 5196,
      "Ġthousands": 5197,
      "100": 5198,
      "55": 5199,
      "66": 5200,
      "jp": 5201,
      "ygen": 5202,
      "Ġx": 5203,
      "edom": 5204,
      "Ġpoor": 5205,
      "Ġdu": 5206,
      "ĠTim": 5207,
      "ĠTrans": 5208,
      "ĠAT": 5209,
      "ĠMot": 5210,
      "Ġord": 5211,
      "Ġconv": 5212,
      "ightly": 5213,
      "Ġfloor": 5214,
      "Ġgrapes": 5215,
      "Ġmarkets": 5216,
      "Ġcultures": 5217,
      "Ġpromot": 5218,
      "Ġinvolves": 5219,
      "ĠOrgan": 5220,
      "Ġrepresented": 5221,
      "ĠRussian": 5222,
      "ĠRoad": 5223,
      "ĠSociety": 5224,
      "Ġcollabor": 5225,
      "Ġinnov": 5226,
      "Ġbalance": 5227,
      "31": 5228,
      "49": 5229,
      "Ge": 5230,
      "bell": 5231,
      "arly": 5232,
      "Ġmamm": 5233,
      "rog": 5234,
      "Ġgro": 5235,
      "Ġstress": 5236,
      "aval": 5237,
      "ĠNavy": 5238,
      "Ġchair": 5239,
      "Ġlett": 5240,
      "ĠKong": 5241,
      "Ġweb": 5242,
      "Ġpartner": 5243,
      "Ġ1988": 5244,
      "Ġ1940": 5245,
      "Ġwanted": 5246,
      "Ġindustrial": 5247,
      "ĠMcC": 5248,
      "Ġcosts": 5249,
      "Ġpresented": 5250,
      "Ġpiece": 5251,
      "Ġfantasy": 5252,
      "Ġjuice": 5253,
      "bra": 5254,
      "life": 5255,
      "rative": 5256,
      "ynam": 5257,
      "zen": 5258,
      "Ġsq": 5259,
      "Ġfly": 5260,
      "ĠTaylor": 5261,
      "Ġgives": 5262,
      "ĠBob": 5263,
      "ador": 5264,
      "ĠPet": 5265,
      "Ġpros": 5266,
      "ĠNight": 5267,
      "resp": 5268,
      "Ġshown": 5269,
      "Ġappropri": 5270,
      "Ġflour": 5271,
      "Ġearned": 5272,
      "Ġanything": 5273,
      "Ġleaders": 5274,
      "ructure": 5275,
      "pective": 5276,
      "ropical": 5277,
      "Ġaircraft": 5278,
      "Ġrespond": 5279,
      "Ġcombined": 5280,
      "borne": 5281,
      "Ġfigure": 5282,
      "Ġpurchase": 5283,
      "Ġattended": 5284,
      "Ġexecutive": 5285,
      "Ġrespectively": 5286,
      "Ġepisodes": 5287,
      "Ġderived": 5288,
      "ĠSenate": 5289,
      "Ġrestaurants": 5290,
      "ĠHawaii": 5291,
      "EFA": 5292,
      "oors": 5293,
      "Ġsch": 5294,
      "aled": 5295,
      "Ġbound": 5296,
      "Ġbikes": 5297,
      "ĠClass": 5298,
      "ĠIll": 5299,
      "ĠMVP": 5300,
      "ĠBat": 5301,
      "ĠFar": 5302,
      "ĠRh": 5303,
      "Ġdeploy": 5304,
      "ĠUnder": 5305,
      "ĠKn": 5306,
      "Ġadvent": 5307,
      "Ġjoint": 5308,
      "enses": 5309,
      "ensity": 5310,
      "Ġtransform": 5311,
      "Ġstructures": 5312,
      "Ġstatus": 5313,
      "Ġviews": 5314,
      "Ġcircuit": 5315,
      "Ġdeclared": 5316,
      "Ġconsecutive": 5317,
      "\":": 5318,
      "27": 5319,
      "CO": 5320,
      "FT": 5321,
      "col": 5322,
      "chen": 5323,
      "rus": 5324,
      "rete": 5325,
      "Ġlived": 5326,
      "ĠSqu": 5327,
      "olved": 5328,
      "ĠCub": 5329,
      "Ġbear": 5330,
      "ĠBall": 5331,
      "Ġstated": 5332,
      "Ġstocks": 5333,
      "ĠPok": 5334,
      "Ġcancer": 5335,
      "order": 5336,
      "Ġrecently": 5337,
      "ĠAmericans": 5338,
      "Ġformal": 5339,
      "Ġwhereas": 5340,
      "Ġcream": 5341,
      "Ġstudent": 5342,
      "Ġfunctions": 5343,
      "Ġcontrovers": 5344,
      "ographic": 5345,
      "ĠCoast": 5346,
      "regon": 5347,
      "Ġappearance": 5348,
      "Ġletter": 5349,
      "Ġsituation": 5350,
      "Ġcouple": 5351,
      "Ġtaste": 5352,
      "ĠRevolution": 5353,
      "):": 5354,
      "PL": 5355,
      "SO": 5356,
      "Sc": 5357,
      "Ġfuel": 5358,
      "Ġmountains": 5359,
      "ĠAge": 5360,
      "cend": 5361,
      "igen": 5362,
      "ĠStan": 5363,
      "ection": 5364,
      "active": 5365,
      "phia": 5366,
      "weight": 5367,
      "Ġprime": 5368,
      "Ġflavor": 5369,
      "ĠArgent": 5370,
      "Ġ1986": 5371,
      "Ġpoll": 5372,
      "Ġmedic": 5373,
      "Ġtechnique": 5374,
      "rison": 5375,
      "Ġorganizations": 5376,
      "ĠIndiana": 5377,
      "Ġeasier": 5378,
      "Ġmarketing": 5379,
      "aught": 5380,
      "Ġrecommended": 5381,
      "Ġneighbor": 5382,
      "Ġbegins": 5383,
      "jpg": 5384,
      "Co": 5385,
      "Ġbass": 5386,
      "Ġmental": 5387,
      "Ġdance": 5388,
      "state": 5389,
      "stream": 5390,
      "ĠMic": 5391,
      "istory": 5392,
      "ĠUEFA": 5393,
      "Ġ300": 5394,
      "Ġdespite": 5395,
      "Ġproduces": 5396,
      "Ġ45": 5397,
      "Ġdefense": 5398,
      "Ġsolve": 5399,
      "Ġplanets": 5400,
      "ĠColor": 5401,
      "Ġcontinuous": 5402,
      "Ġcomputers": 5403,
      "which": 5404,
      "Ġfeeling": 5405,
      "Ġwoodwind": 5406,
      "ĠKorea": 5407,
      "Ġoutdoor": 5408,
      "ropolitan": 5409,
      "adelphia": 5410,
      ".âĢĿ": 5411,
      "cell": 5412,
      "uable": 5413,
      "Ġfile": 5414,
      "Ġpool": 5415,
      "ican": 5416,
      "ette": 5417,
      "ĠCath": 5418,
      "ĠCorpor": 5419,
      "ĠMel": 5420,
      "ĠMore": 5421,
      "Ġbeyond": 5422,
      "ulpt": 5423,
      "ĠPen": 5424,
      "Ġconvers": 5425,
      "Ġchurch": 5426,
      "Ġflav": 5427,
      "ĠSpark": 5428,
      "Ġattacks": 5429,
      "ĠDevelop": 5430,
      "ĠScience": 5431,
      "Ġexperien": 5432,
      "Ġpolitician": 5433,
      "Ġcharacteristics": 5434,
      "former": 5435,
      "Ġhappy": 5436,
      "Ġzone": 5437,
      "ĠMediterranean": 5438,
      "Ġcovered": 5439,
      "ĠPlayer": 5440,
      "Ġcharged": 5441,
      "Ġterritories": 5442,
      "ĠBerlin": 5443,
      "Ġinstitutions": 5444,
      "Ġreligious": 5445,
      "Ġagreement": 5446,
      "ĠCEO": 5447,
      "Ġaspects": 5448,
      "Ġsymbol": 5449,
      "07": 5450,
      "ET": 5451,
      "wan": 5452,
      "yer": 5453,
      "ÉĽ": 5454,
      "Ġdedic": 5455,
      "ĠSub": 5456,
      "Ġnice": 5457,
      "Ġbeat": 5458,
      "ĠPak": 5459,
      "ĠLab": 5460,
      "ĠEnd": 5461,
      "abeth": 5462,
      "Ġseem": 5463,
      "ressive": 5464,
      "2021": 5465,
      "Ġagricult": 5466,
      "Ġflag": 5467,
      "rams": 5468,
      "Ġremoved": 5469,
      "Ġminimum": 5470,
      "Ġtechnologies": 5471,
      "ception": 5472,
      "ĠBeach": 5473,
      "CAA": 5474,
      "load": 5475,
      "Ġcalendar": 5476,
      "chers": 5477,
      "Ġsequence": 5478,
      "contin": 5479,
      "Ġweapons": 5480,
      "ĠVietnam": 5481,
      "68": 5482,
      ":/": 5483,
      "uer": 5484,
      "âĪ": 5485,
      "atre": 5486,
      "Ġdial": 5487,
      "unning": 5488,
      "ĠHel": 5489,
      "ĠElectric": 5490,
      "kend": 5491,
      "aine": 5492,
      "Ġrough": 5493,
      "Ġchance": 5494,
      "Ġteac": 5495,
      "ĠKen": 5496,
      "ephen": 5497,
      "ibly": 5498,
      "Ġtherefore": 5499,
      "Ġremained": 5500,
      "ĠReal": 5501,
      "Ġamounts": 5502,
      "Ġbiryani": 5503,
      "ĠChampionships": 5504,
      "Ġhoriz": 5505,
      "Ġwebsite": 5506,
      "Ġsplit": 5507,
      "With": 5508,
      "rich": 5509,
      "onia": 5510,
      "icial": 5511,
      "eline": 5512,
      "ĠSk": 5513,
      "ĠAz": 5514,
      "Ġgrown": 5515,
      "ĠPel": 5516,
      "ĠFort": 5517,
      "Ġsust": 5518,
      "Ġcommand": 5519,
      "Ġsubs": 5520,
      "Ġremember": 5521,
      "Ġemail": 5522,
      "Ġ1975": 5523,
      "Ġedition": 5524,
      "Ġprofessor": 5525,
      "Ġreading": 5526,
      "Ġclimbing": 5527,
      "ĠPrime": 5528,
      "Ġprices": 5529,
      "Ġobserved": 5530,
      "Ġholiday": 5531,
      "Ġsymptoms": 5532,
      "://": 5533,
      "flow": 5534,
      "rise": 5535,
      "Ġwall": 5536,
      "Ġpair": 5537,
      "Ġhair": 5538,
      "ĠMur": 5539,
      "ĠMajor": 5540,
      "Ġalone": 5541,
      "umes": 5542,
      "ĠGolf": 5543,
      "Ġrich": 5544,
      "Ġexer": 5545,
      "ĠJr": 5546,
      "ĠJes": 5547,
      "ĠVict": 5548,
      "lets": 5549,
      "Ġacadem": 5550,
      "azine": 5551,
      "Ġcompletely": 5552,
      "Ġinternet": 5553,
      "Ġremaining": 5554,
      "ĠDepartment": 5555,
      "Ġaccomplish": 5556,
      "Or": 5557,
      "fast": 5558,
      "iated": 5559,
      "rome": 5560,
      "spe": 5561,
      "Ġaware": 5562,
      "onn": 5563,
      "onym": 5564,
      "Ġsort": 5565,
      "oration": 5566,
      "Ġpull": 5567,
      "igation": 5568,
      "ĠPop": 5569,
      "Ġ(\"": 5570,
      "oday": 5571,
      "ĠWay": 5572,
      "ĠJon": 5573,
      "ĠOregon": 5574,
      "Ġkid": 5575,
      "ĠVol": 5576,
      "reek": 5577,
      "tee": 5578,
      "ologist": 5579,
      "Ġrelax": 5580,
      "Ġexpansion": 5581,
      "Ġstudio": 5582,
      "Ġrecording": 5583,
      "Ġcompete": 5584,
      "iami": 5585,
      "Ġready": 5586,
      "Ġbanking": 5587,
      "rapy": 5588,
      "Ġproposed": 5589,
      "Ġselected": 5590,
      "rastructure": 5591,
      "Ġepisode": 5592,
      "Ġessential": 5593,
      "ĠAlexander": 5594,
      "ĠPayPal": 5595,
      "ĠStratoc": 5596,
      "Ġcapacity": 5597,
      "IT": 5598,
      "pan": 5599,
      "Ġtheore": 5600,
      "Ġol": 5601,
      "Ġpict": 5602,
      "Ġpitch": 5603,
      "rav": 5604,
      "raine": 5605,
      "umin": 5606,
      "ĠRog": 5607,
      "Ġtrail": 5608,
      "Ġpean": 5609,
      "197": 5610,
      "Ġworkers": 5611,
      "Ġdeveloping": 5612,
      "Ġdrivers": 5613,
      "Ġeffort": 5614,
      "azing": 5615,
      "Ġoriginated": 5616,
      "Ġstrateg": 5617,
      "Ġsignificantly": 5618,
      "ĠPhiladelphia": 5619,
      "Ġbrands": 5620,
      "Ġmixed": 5621,
      "Ġlatter": 5622,
      "ocolate": 5623,
      "Ġcitizens": 5624,
      "47": 5625,
      "east": 5626,
      "gl": 5627,
      "ker": 5628,
      "uing": 5629,
      "Ġiron": 5630,
      "isher": 5631,
      "Ġfict": 5632,
      "arp": 5633,
      "Ġbodies": 5634,
      "Ġmission": 5635,
      "ĠSir": 5636,
      "rael": 5637,
      "irus": 5638,
      "ĠBre": 5639,
      "ady": 5640,
      "ĠFore": 5641,
      "ĠLove": 5642,
      "Ġexhib": 5643,
      "iana": 5644,
      "Ġjump": 5645,
      "ĠAlaska": 5646,
      "Ġdifferences": 5647,
      "Ġfinally": 5648,
      "Ġmetres": 5649,
      "Ġsimpl": 5650,
      "Ġminer": 5651,
      "Ġ1977": 5652,
      "Ġ1969": 5653,
      "Ġdetails": 5654,
      "annel": 5655,
      "ttps": 5656,
      "Ġrevolution": 5657,
      "Ġbiological": 5658,
      "Ġtemperatures": 5659,
      "mitted": 5660,
      "ĠModel": 5661,
      "Ġconducted": 5662,
      "ĠJoseph": 5663,
      "Ġmanufacturer": 5664,
      "Ġastron": 5665,
      "ĠFIFA": 5666,
      "Ġschol": 5667,
      "gian": 5668,
      "Ġu": 5669,
      "onic": 5670,
      "Ġselling": 5671,
      "Ġwa": 5672,
      "orph": 5673,
      "itter": 5674,
      "Ġfans": 5675,
      "Ġmut": 5676,
      "ĠIm": 5677,
      "Ġstored": 5678,
      "Ġstores": 5679,
      "ĠPublic": 5680,
      "agement": 5681,
      "Ġleaving": 5682,
      "ĠVer": 5683,
      "Ġsculpt": 5684,
      "2018": 5685,
      "Ġactor": 5686,
      "195": 5687,
      "fully": 5688,
      "Ġassets": 5689,
      "Ġdefend": 5690,
      "Ġ1984": 5691,
      "ancing": 5692,
      "Ġrequest": 5693,
      "ĠScot": 5694,
      "Ġstreaming": 5695,
      "gency": 5696,
      "Ġcatch": 5697,
      "Ġzero": 5698,
      "Ġlearned": 5699,
      "Ġoffered": 5700,
      "Ġinternal": 5701,
      "ĠService": 5702,
      "ĠDiego": 5703,
      "aug": 5704,
      "cling": 5705,
      "iop": 5706,
      "mission": 5707,
      "vide": 5708,
      "Ġtherm": 5709,
      "Ġsides": 5710,
      "itors": 5711,
      "Ġfle": 5712,
      "ĠSil": 5713,
      "utional": 5714,
      "Ġvent": 5715,
      "ĠLu": 5716,
      "Ġsuc": 5717,
      "izabeth": 5718,
      "outheast": 5719,
      "Ġsoil": 5720,
      "Ġcarried": 5721,
      "Ġ1981": 5722,
      "Ġsignal": 5723,
      "Ġstret": 5724,
      "Ġsupported": 5725,
      "Ġbands": 5726,
      "Ġproperties": 5727,
      "Ġdestination": 5728,
      "Ġsentiment": 5729,
      "Ġreaching": 5730,
      "Ġclaimed": 5731,
      "ĠDespite": 5732,
      "Ġasked": 5733,
      "Ġfirm": 5734,
      "Ġfixed": 5735,
      "Ġdangerous": 5736,
      "Ġstrugg": 5737,
      "03": 5738,
      "Ã£": 5739,
      "Ġ#": 5740,
      "ishes": 5741,
      "Ġpaid": 5742,
      "ĠSep": 5743,
      "Ġreve": 5744,
      "ĠTy": 5745,
      "ĠMu": 5746,
      "agues": 5747,
      "aven": 5748,
      "ĠRom": 5749,
      "iller": 5750,
      "Ġseg": 5751,
      "Ġplot": 5752,
      "ĠOh": 5753,
      "ĠOx": 5754,
      "Ġshared": 5755,
      "sole": 5756,
      "ĠThrones": 5757,
      "Ġjack": 5758,
      "teen": 5759,
      "overs": 5760,
      "Ġgenre": 5761,
      "Ġamb": 5762,
      "Ġnewsp": 5763,
      "Ġphr": 5764,
      "Ġpresence": 5765,
      "Ġ1963": 5766,
      "ĠForce": 5767,
      "enger": 5768,
      "Ġopposite": 5769,
      "Ġelement": 5770,
      "idden": 5771,
      "ĠTechn": 5772,
      "Ġresear": 5773,
      "Ġconsisting": 5774,
      "Ġtaxes": 5775,
      "ĠĠĠĠĠĠĠĠ": 5776,
      "Ġscientists": 5777,
      "Ġaudience": 5778,
      "Ġjobs": 5779,
      "amilton": 5780,
      "writer": 5781,
      "Ġdomesticated": 5782,
      "Ġchallenges": 5783,
      "Ġdouble": 5784,
      "Ġadjust": 5785,
      "Ġalgorithm": 5786,
      "Increase": 5787,
      "Ġappropriate": 5788,
      "ĠCorporation": 5789,
      "net": 5790,
      "point": 5791,
      "tun": 5792,
      "Ġir": 5793,
      "orize": 5794,
      "itage": 5795,
      "Ġfashion": 5796,
      "arate": 5797,
      "Ġmort": 5798,
      "elly": 5799,
      "ĠBab": 5800,
      "Ġstadium": 5801,
      "ĠPenn": 5802,
      "ĠFrid": 5803,
      "ĠNCAA": 5804,
      "ĠLight": 5805,
      "ĠJersey": 5806,
      "rip": 5807,
      "irect": 5808,
      "Ġparties": 5809,
      "Ġgenerate": 5810,
      "Ġeverything": 5811,
      "ervation": 5812,
      "ivalent": 5813,
      "Ġfishing": 5814,
      "Ġfastest": 5815,
      "Ġempire": 5816,
      "ĠLLMs": 5817,
      "86": 5818,
      "AI": 5819,
      "During": 5820,
      "dam": 5821,
      "name": 5822,
      "selling": 5823,
      "orer": 5824,
      "ano": 5825,
      "Ġfair": 5826,
      "Ġinform": 5827,
      "Ġdaughter": 5828,
      "ila": 5829,
      "etary": 5830,
      "aya": 5831,
      "Ġconference": 5832,
      "ĠRem": 5833,
      "ells": 5834,
      "ĠStone": 5835,
      "dule": 5836,
      "ĠVen": 5837,
      "Ġcovers": 5838,
      "Ġimage": 5839,
      "Ġresidents": 5840,
      "Ġacting": 5841,
      "ĠArts": 5842,
      "Ġ1987": 5843,
      "Ġentered": 5844,
      "boards": 5845,
      "Ġ1964": 5846,
      "vention": 5847,
      "Ġ1945": 5848,
      "reme": 5849,
      "ipped": 5850,
      "Ġlayers": 5851,
      "embly": 5852,
      "Ġcategories": 5853,
      "ĠTurkey": 5854,
      "Ġhonor": 5855,
      "Ġexpanded": 5856,
      "Ġinstructions": 5857,
      "ĠNobel": 5858,
      "Ġbudget": 5859,
      "bour": 5860,
      "brid": 5861,
      "fit": 5862,
      "ns": 5863,
      "oral": 5864,
      "orge": 5865,
      "Ġdro": 5866,
      "Ġlose": 5867,
      "ĠTar": 5868,
      "ĠBaseball": 5869,
      "ĠPeter": 5870,
      "tered": 5871,
      "ĠHam": 5872,
      "throp": 5873,
      "ĠEll": 5874,
      "resents": 5875,
      "ĠUk": 5876,
      "ĠOb": 5877,
      "ĠOper": 5878,
      "ĠOtt": 5879,
      "ĠKu": 5880,
      "Ġnotable": 5881,
      "perial": 5882,
      "ĠChampions": 5883,
      "Ġperman": 5884,
      "Ġsched": 5885,
      "ĠDev": 5886,
      "Ġ65": 5887,
      "Ġskin": 5888,
      "Ġtechnical": 5889,
      "Ġsolo": 5890,
      "Ġoperation": 5891,
      "Ġofficer": 5892,
      "ydney": 5893,
      "Ġ1930": 5894,
      "boarding": 5895,
      "inois": 5896,
      "Ġfailed": 5897,
      "Ġencoura": 5898,
      "Ġprepared": 5899,
      "Ġadopted": 5900,
      "Ġopportunity": 5901,
      "Ġoxygen": 5902,
      "ĠArea": 5903,
      "respond": 5904,
      "Mar": 5905,
      "NSA": 5906,
      "QL": 5907,
      "cos": 5908,
      "fall": 5909,
      "gon": 5910,
      "uation": 5911,
      "Ġtropical": 5912,
      "indu": 5913,
      "Ġcuis": 5914,
      "encing": 5915,
      "Ġmig": 5916,
      "rol": 5917,
      "ĠSy": 5918,
      "ĠAD": 5919,
      "lywood": 5920,
      "ĠIran": 5921,
      "ĠMa": 5922,
      "Ġstick": 5923,
      "Ġconsole": 5924,
      "ĠGh": 5925,
      "ĠLas": 5926,
      "ĠList": 5927,
      "ĠLong": 5928,
      "Ġrivers": 5929,
      "izard": 5930,
      "duc": 5931,
      "Ġimag": 5932,
      "Ġrow": 5933,
      "Ġquite": 5934,
      "Ġapple": 5935,
      "Ġproducer": 5936,
      "hens": 5937,
      "Ġ1979": 5938,
      "Ġresulting": 5939,
      "Ġbroken": 5940,
      "Ġcommunities": 5941,
      "ĠCarl": 5942,
      "clus": 5943,
      "Ġmanaged": 5944,
      "Ġhousehold": 5945,
      "ĠCommon": 5946,
      "Ġpoet": 5947,
      "stitution": 5948,
      "Ġbuying": 5949,
      "Ġprobability": 5950,
      "Ġinspired": 5951,
      "Ġatmosphere": 5952,
      "Ġconstructed": 5953,
      "Ġrenew": 5954,
      "'.": 5955,
      "AM": 5956,
      "She": 5957,
      "dy": 5958,
      "ooth": 5959,
      "ses": 5960,
      "win": 5961,
      "Ã§": 5962,
      "Ã¼": 5963,
      "hedule": 5964,
      "Ġmaster": 5965,
      "Ġhope": 5966,
      "Ġisol": 5967,
      "enth": 5968,
      "Ġreality": 5969,
      "ĠCy": 5970,
      "uration": 5971,
      "ĠBern": 5972,
      "adi": 5973,
      "ĠHamilton": 5974,
      "ĠFollowing": 5975,
      "ĠGDP": 5976,
      "ĠDNA": 5977,
      "ĠWild": 5978,
      "ĠWales": 5979,
      "Ġvan": 5980,
      "ĠLakers": 5981,
      "ĠEver": 5982,
      "anta": 5983,
      "rics": 5984,
      "Ġadvert": 5985,
      "ternal": 5986,
      "Ġregional": 5987,
      "Ġcentre": 5988,
      "Ġmuscle": 5989,
      "ĠAnn": 5990,
      "Ġ1973": 5991,
      "Ġ1974": 5992,
      "Ġmarked": 5993,
      "Ġplane": 5994,
      "ĠPlan": 5995,
      "ĠConference": 5996,
      "Ġinvestors": 5997,
      "ĠFinally": 5998,
      "Ġelse": 5999,
      "Ġnovels": 6000,
      "ĠBillboard": 6001,
      "Ġeye": 6002,
      "Ġextended": 6003,
      "iplom": 6004,
      "ĠWindows": 6005,
      "Ġincorporated": 6006,
      "Ġgrocer": 6007,
      "%.": 6008,
      "Am": 6009,
      "mond": 6010,
      "vard": 6011,
      "with": 6012,
      "Ġfought": 6013,
      "Ġbath": 6014,
      "Ġbowl": 6015,
      "Ġmap": 6016,
      "Ġretain": 6017,
      "ĠTake": 6018,
      "ĠTreat": 6019,
      "Ġgear": 6020,
      "ĠLittle": 6021,
      "lder": 6022,
      "Ġhero": 6023,
      "Ġsevent": 6024,
      "ighth": 6025,
      "rie": 6026,
      "onder": 6027,
      "ront": 6028,
      "Ġminute": 6029,
      "Ġcontinues": 6030,
      "Ġorganized": 6031,
      "Ġinterests": 6032,
      "Ġlegisl": 6033,
      "Ġvideos": 6034,
      "ĠIII": 6035,
      "Ġdraft": 6036,
      "ĠBarb": 6037,
      "Ġpainting": 6038,
      "ĠResearch": 6039,
      "marize": 6040,
      "Ġfluid": 6041,
      "Ġpopulous": 6042,
      "Ġbirds": 6043,
      "Ġbranch": 6044,
      "Ġprominent": 6045,
      "ĠIllinois": 6046,
      "âĪĴ": 6047,
      "90": 6048,
      "TV": 6049,
      "bor": 6050,
      "ua": 6051,
      "wo": 6052,
      "Ġaer": 6053,
      "Ġcash": 6054,
      "Ġfestival": 6055,
      "Ġbridge": 6056,
      "Ġhiking": 6057,
      "amily": 6058,
      "Ġnort": 6059,
      "ĠMiami": 6060,
      "Ġstorm": 6061,
      "ading": 6062,
      "ulate": 6063,
      "ĠPython": 6064,
      "isters": 6065,
      "istical": 6066,
      "ĠRos": 6067,
      "Ġexchange": 6068,
      "Ġplans": 6069,
      "apes": 6070,
      "Ġnoted": 6071,
      "ĠAltern": 6072,
      "Ġactions": 6073,
      "Ġworkout": 6074,
      "ribute": 6075,
      "Ġdecisions": 6076,
      "Ġcapabilities": 6077,
      "Ġpositions": 6078,
      "Ġentity": 6079,
      "Ġminor": 6080,
      "including": 6081,
      "ĠBeat": 6082,
      "Ġfactor": 6083,
      "Ġcultiv": 6084,
      "Ġappears": 6085,
      "Ġswitch": 6086,
      "Ġengineer": 6087,
      "Ġbelief": 6088,
      "Ġmeasured": 6089,
      "Ġquantum": 6090,
      "listen": 6091,
      "48": 6092,
      "pool": 6093,
      "eries": 6094,
      "Ġhomes": 6095,
      "rot": 6096,
      "Ġgal": 6097,
      "raq": 6098,
      "ĠBal": 6099,
      "Ġorig": 6100,
      "estyle": 6101,
      "ĠDet": 6102,
      "abil": 6103,
      "ĠJud": 6104,
      "Ġplate": 6105,
      "ograp": 6106,
      "Ġpepper": 6107,
      "Ġsyn": 6108,
      "Ġdistingu": 6109,
      "Ġ1968": 6110,
      "Ġretired": 6111,
      "Ġresulted": 6112,
      "ĠIsrael": 6113,
      "Ġcontinent": 6114,
      "Ġapproaches": 6115,
      "Ġtrust": 6116,
      "Ġcert": 6117,
      "Ġspecifically": 6118,
      "Ġmeasures": 6119,
      "Ġcorrespond": 6120,
      "Ġpoem": 6121,
      "Ġsuccessfully": 6122,
      "Ġextreme": 6123,
      "ĠSmith": 6124,
      "Ġcorporate": 6125,
      "Ġsurrounding": 6126,
      "Ġadministration": 6127,
      "ĠAPI": 6128,
      "96": 6129,
      "GA": 6130,
      "face": 6131,
      "inem": 6132,
      "erate": 6133,
      "Ġwire": 6134,
      "ĠSpe": 6135,
      "amous": 6136,
      "ĠToy": 6137,
      "ĠCamb": 6138,
      "oto": 6139,
      "ĠMen": 6140,
      "ĠNow": 6141,
      "Ġvs": 6142,
      "Ġseeds": 6143,
      "Ġsufficient": 6144,
      "ĠJew": 6145,
      "Ġchocolate": 6146,
      "aked": 6147,
      "Ġarm": 6148,
      "ansas": 6149,
      "Ġ185": 6150,
      "Ġremove": 6151,
      "Ġskill": 6152,
      "Ġsettle": 6153,
      "prise": 6154,
      "Ġstrings": 6155,
      "Ġinsurance": 6156,
      "Ġ1947": 6157,
      "Ġweekend": 6158,
      "ylv": 6159,
      "Ġfundam": 6160,
      "Ġsounds": 6161,
      "Ġspending": 6162,
      "Ġcomponent": 6163,
      "Ġclosely": 6164,
      "Ġsemi": 6165,
      "Ġcapture": 6166,
      "porary": 6167,
      "Ġultimately": 6168,
      "Ġgravity": 6169,
      "ĠFormula": 6170,
      "ĠCatholic": 6171,
      "ĠFriday": 6172,
      "%)": 6173,
      "De": 6174,
      "Sw": 6175,
      "oen": 6176,
      "Ġcab": 6177,
      "ellect": 6178,
      "ĠSnow": 6179,
      "ĠSaint": 6180,
      "Ġreform": 6181,
      "Ġgun": 6182,
      "Ġgross": 6183,
      "ĠCast": 6184,
      "ivals": 6185,
      "uted": 6186,
      "Ġseat": 6187,
      "ĠStephen": 6188,
      "rance": 6189,
      "ĠChris": 6190,
      "Ġarms": 6191,
      "Ġreports": 6192,
      "Ġremote": 6193,
      "Ġkept": 6194,
      "ĠAustria": 6195,
      "Ġcompetitive": 6196,
      "Ġexplore": 6197,
      "Ġinteresting": 6198,
      "puter": 6199,
      "ĠCommission": 6200,
      "Ġtests": 6201,
      "Ġtesting": 6202,
      "Ġcreative": 6203,
      "ĠEnter": 6204,
      "Ġpremier": 6205,
      "ĠSanta": 6206,
      "Ġnarrow": 6207,
      "Ġopponent": 6208,
      "By": 6209,
      "ja": 6210,
      "yo": 6211,
      "Éĳ": 6212,
      "Ġbot": 6213,
      "illy": 6214,
      "ĠCro": 6215,
      "rack": 6216,
      "ĠBudd": 6217,
      "Ġstim": 6218,
      "osure": 6219,
      "osaur": 6220,
      "ĠLy": 6221,
      "ource": 6222,
      "Ġscoring": 6223,
      "Ġ36": 6224,
      "Ġrepresents": 6225,
      "Ġgenerated": 6226,
      "Ġ1982": 6227,
      "Ġdistributed": 6228,
      "egas": 6229,
      "Ġslightly": 6230,
      "Ġphysics": 6231,
      "Ġvisiting": 6232,
      "Ġfocused": 6233,
      "ĠNext": 6234,
      "ĠMinister": 6235,
      "Ġprinciple": 6236,
      "Ġmechanical": 6237,
      "unicip": 6238,
      "Ġhousing": 6239,
      "Ġmaximum": 6240,
      "ĠSweden": 6241,
      "ĠVenezuela": 6242,
      "ĠColorado": 6243,
      "ĠJesus": 6244,
      "ĠScotland": 6245,
      "36": 6246,
      "AC": 6247,
      "Ad": 6248,
      "Do": 6249,
      "ST": 6250,
      "class": 6251,
      "ded": 6252,
      "rn": 6253,
      "Åį": 6254,
      "Ġtort": 6255,
      "Ġtick": 6256,
      "Ġflex": 6257,
      "Ġbomb": 6258,
      "ouston": 6259,
      "Ġliber": 6260,
      "Ġrein": 6261,
      "Ġrevers": 6262,
      "Ġstaff": 6263,
      "thiop": 6264,
      "Ġconcer": 6265,
      "occo": 6266,
      "Ġchart": 6267,
      "gend": 6268,
      "Ġshoes": 6269,
      "Ġships": 6270,
      "Ġwheel": 6271,
      "oking": 6272,
      "ĠYour": 6273,
      "Ġdecade": 6274,
      "Ġinstall": 6275,
      "Ġcurrency": 6276,
      "Ġinfrastructure": 6277,
      "Ġsolution": 6278,
      "Ġdidn": 6279,
      "Ġplanned": 6280,
      "Ġtourist": 6281,
      "Ġadding": 6282,
      "Ġ1939": 6283,
      "Ġpractices": 6284,
      "ĠTeam": 6285,
      "Ġthinking": 6286,
      "Ġproteins": 6287,
      "burgh": 6288,
      "Ġsubsequently": 6289,
      "Ġopin": 6290,
      "Ġexercis": 6291,
      "bow": 6292,
      "gu": 6293,
      "Ġ+": 6294,
      "Ġur": 6295,
      "Ġtrou": 6296,
      "Ġsou": 6297,
      "Ġhop": 6298,
      "etime": 6299,
      "Ġforced": 6300,
      "Ġorbit": 6301,
      "Ġitem": 6302,
      "ĠGand": 6303,
      "ĠLink": 6304,
      "ĠEvery": 6305,
      "Ġrival": 6306,
      "Ġkick": 6307,
      "aks": 6308,
      "Ġweak": 6309,
      "ĠAlb": 6310,
      "Ġactress": 6311,
      "Ġelectrons": 6312,
      "insula": 6313,
      "iox": 6314,
      "Ġbreeds": 6315,
      "uese": 6316,
      "Ġairport": 6317,
      "ĠâĢĺ": 6318,
      "Ġcompetitions": 6319,
      "Ġinterested": 6320,
      "scape": 6321,
      "Ġinfluenced": 6322,
      "Ġmagnetic": 6323,
      "Ġenvironmental": 6324,
      "Ġexcell": 6325,
      "Ġanti": 6326,
      "Ġadults": 6327,
      "Ġpatterns": 6328,
      "Ġheavily": 6329,
      "ĠOsborne": 6330,
      "ĠArgentina": 6331,
      "Ġneighborhood": 6332,
      "ĠPakistan": 6333,
      "Ã£o": 6334,
      ")]": 6335,
      "97": 6336,
      "Gen": 6337,
      "eper": 6338,
      "ias": 6339,
      "lers": 6340,
      "nic": 6341,
      "pread": 6342,
      "ship": 6343,
      "instein": 6344,
      "Ġfear": 6345,
      "roke": 6346,
      "Ġreaction": 6347,
      "ĠMov": 6348,
      "ĠBon": 6349,
      "ĠBull": 6350,
      "ĠHindu": 6351,
      "ĠFame": 6352,
      "Ġsend": 6353,
      "ĠJer": 6354,
      "rix": 6355,
      "berries": 6356,
      "Ġkg": 6357,
      "peror": 6358,
      "Ġintellect": 6359,
      "velt": 6360,
      "angle": 6361,
      "Ġtrav": 6362,
      "indi": 6363,
      "cket": 6364,
      "Ġapply": 6365,
      "ĠIndust": 6366,
      "Ġacts": 6367,
      "Ġsecs": 6368,
      "Ġfinish": 6369,
      "Ġassum": 6370,
      "Ġcapable": 6371,
      "Ġserves": 6372,
      "Ġ1972": 6373,
      "Ġperforming": 6374,
      "Ġexplo": 6375,
      "Ġlawyer": 6376,
      "idespread": 6377,
      "Ġreducing": 6378,
      "ĠFinland": 6379,
      "Ġconnection": 6380,
      "Ġspecialized": 6381,
      "ĠElizabeth": 6382,
      "ĠPoland": 6383,
      "Ġpurchased": 6384,
      "ĠBCE": 6385,
      "Ġcrypt": 6386,
      "Ġprincipal": 6387,
      "senal": 6388,
      "Ġheadquarters": 6389,
      "Ġfictional": 6390,
      "Ġorigins": 6391,
      "62": 6392,
      "First": 6393,
      "eed": 6394,
      "vised": 6395,
      "ĠËĪ": 6396,
      "Ġwave": 6397,
      "Ġbact": 6398,
      "Ġpine": 6399,
      "Ġpiano": 6400,
      "Ġtooth": 6401,
      "leball": 6402,
      "ĠSydney": 6403,
      "ownt": 6404,
      "ĠPo": 6405,
      "ĠPoint": 6406,
      "ĠHome": 6407,
      "ĠGi": 6408,
      "ĠRod": 6409,
      "ĠRaj": 6410,
      "osm": 6411,
      "Ġvul": 6412,
      "ĠUC": 6413,
      "ella": 6414,
      "inding": 6415,
      "Ġ32": 6416,
      "under": 6417,
      "ilding": 6418,
      "Ġthemes": 6419,
      "Ġ180": 6420,
      "Ġcounty": 6421,
      "Ġactual": 6422,
      "Ġcaptain": 6423,
      "Ġowners": 6424,
      "Ġ1971": 6425,
      "afka": 6426,
      "Ġopposed": 6427,
      "shot": 6428,
      "Ġimproved": 6429,
      "Ġassociation": 6430,
      "Ġwindows": 6431,
      "Ġregularly": 6432,
      "Ġfluor": 6433,
      "ĠPortugal": 6434,
      "ĠKennedy": 6435,
      "ylvania": 6436,
      "'d": 6437,
      "Will": 6438,
      "cia": 6439,
      "nce": 6440,
      "pres": 6441,
      "power": 6442,
      "va": 6443,
      "rell": 6444,
      "Ġsail": 6445,
      "Ġwidespread": 6446,
      "Ġhits": 6447,
      "Ġlosing": 6448,
      "ĠMess": 6449,
      "Ġbeer": 6450,
      "Ġbeef": 6451,
      "ĠDark": 6452,
      "ĠDrag": 6453,
      "ĠRing": 6454,
      "ĠRow": 6455,
      "ĠRail": 6456,
      "ĠLike": 6457,
      "ĠUN": 6458,
      "Ġenab": 6459,
      "ĠChief": 6460,
      "Ġdoctor": 6461,
      "Ġschedule": 6462,
      "phas": 6463,
      "osevelt": 6464,
      "awn": 6465,
      "inton": 6466,
      "Ġgene": 6467,
      "coin": 6468,
      "Ġvariet": 6469,
      "ledon": 6470,
      "Ġ1955": 6471,
      "Ġ1948": 6472,
      "Ġperiods": 6473,
      "Ġcausing": 6474,
      "Ġflowers": 6475,
      "Ġmembership": 6476,
      "Ġconcent": 6477,
      "Ġmotiv": 6478,
      "Ġvacc": 6479,
      "Ġdefeat": 6480,
      "Ġhouses": 6481,
      "Ġbonds": 6482,
      "Ġconcerns": 6483,
      "Ġdinner": 6484,
      "ĠNadal": 6485,
      "Ġconflict": 6486,
      "Ġsandwich": 6487,
      "Ġupper": 6488,
      "bar": 6489,
      "cious": 6490,
      "elect": 6491,
      "oa": 6492,
      "inces": 6493,
      "oni": 6494,
      "enge": 6495,
      "orrow": 6496,
      "Ġdiam": 6497,
      "Ġdynam": 6498,
      "Ġhyp": 6499,
      "ĠMes": 6500,
      "ĠBir": 6501,
      "ĠPrad": 6502,
      "oda": 6503,
      "ĠFace": 6504,
      "Ġconver": 6505,
      "ĠRol": 6506,
      "ĠRay": 6507,
      "opher": 6508,
      "ĠWeb": 6509,
      "ĠNA": 6510,
      "ĠNations": 6511,
      "anted": 6512,
      "These": 6513,
      "Ġunl": 6514,
      "Ġtraditionally": 6515,
      "ĠThrough": 6516,
      "ĠHealth": 6517,
      "Ġpeace": 6518,
      "Ġshel": 6519,
      "ĠColomb": 6520,
      "Ġvisitors": 6521,
      "Ġrepresenting": 6522,
      "ĠPhilipp": 6523,
      "Ġfigures": 6524,
      "ĠModern": 6525,
      "Ġcontrolled": 6526,
      "Ġletters": 6527,
      "ĠVictor": 6528,
      "ĠStratocaster": 6529,
      "Ġsucceed": 6530,
      "ĠOxford": 6531,
      "Le": 6532,
      "ding": 6533,
      "pm": 6534,
      "pur": 6535,
      "Ġsave": 6536,
      "atically": 6537,
      "isa": 6538,
      "Ġfav": 6539,
      "Ġfelt": 6540,
      "Ġben": 6541,
      "Ġdiplom": 6542,
      "ĠTown": 6543,
      "Ġthick": 6544,
      "Ġgrid": 6545,
      "Ġwithd": 6546,
      "ĠHong": 6547,
      "ĠHouston": 6548,
      "osh": 6549,
      "Ġvoice": 6550,
      "ĠEp": 6551,
      "Ġran": 6552,
      "upiter": 6553,
      "Ġspan": 6554,
      "Ġadapt": 6555,
      "Ġdiss": 6556,
      "Ġproducing": 6557,
      "Ġaccur": 6558,
      "Ġmanage": 6559,
      "Ġdecline": 6560,
      "Ġmyth": 6561,
      "Ġexpress": 6562,
      "Ġmovements": 6563,
      "Ġ1966": 6564,
      "ĠWarri": 6565,
      "Ġdesignated": 6566,
      "Ġexperim": 6567,
      "Ġvalid": 6568,
      "Ġoperated": 6569,
      "ynast": 6570,
      "Ġmagnet": 6571,
      "Ġrelationships": 6572,
      "Ġtreatment": 6573,
      "Ġcryst": 6574,
      "imbledon": 6575,
      "Ġrapidly": 6576,
      "Ġvirtual": 6577,
      "Ġschedul": 6578,
      "Us": 6579,
      "bec": 6580,
      "hatt": 6581,
      "lades": 6582,
      "ye": 6583,
      "Ã±": 6584,
      "ĠÂ": 6585,
      "Ġcas": 6586,
      "Ġmis": 6587,
      "Ġmouth": 6588,
      "asman": 6589,
      "ĠSpec": 6590,
      "ĠTrump": 6591,
      "ĠCir": 6592,
      "idency": 6593,
      "ĠIraq": 6594,
      "urd": 6595,
      "Ġstap": 6596,
      "unc": 6597,
      "ĠLion": 6598,
      "Ġcompar": 6599,
      "Ġteen": 6600,
      "ghan": 6601,
      "phabet": 6602,
      "Ġconsult": 6603,
      "xture": 6604,
      "Ġapples": 6605,
      "tenance": 6606,
      "Ġinterview": 6607,
      "Ġsmart": 6608,
      "Ġpolic": 6609,
      "Ġmedal": 6610,
      "Ġlegs": 6611,
      "bean": 6612,
      "Ġoffering": 6613,
      "ĠMichigan": 6614,
      "Ġholes": 6615,
      "Ġcategory": 6616,
      "Ġpurposes": 6617,
      "Ġstrike": 6618,
      "ĠGlobal": 6619,
      "Ġprepare": 6620,
      "Ġrestaurant": 6621,
      "Ġmessage": 6622,
      "Ġutil": 6623,
      "Ġspectrum": 6624,
      "ĠColumbia": 6625,
      "Ġacademic": 6626,
      "ĠSeparate": 6627,
      ".)": 6628,
      "Cal": 6629,
      "My": 6630,
      "Many": 6631,
      "Most": 6632,
      "RO": 6633,
      "So": 6634,
      "iency": 6635,
      "sylvania": 6636,
      "Ġwet": 6637,
      "Ġfaced": 6638,
      "Ġple": 6639,
      "Ġpione": 6640,
      "icit": 6641,
      "Ġdating": 6642,
      "Ġhuge": 6643,
      "eters": 6644,
      "Ġgym": 6645,
      "oln": 6646,
      "ĠCost": 6647,
      "ĠFre": 6648,
      "Ġvast": 6649,
      "ĠLie": 6650,
      "ĠElect": 6651,
      "Ġneither": 6652,
      "ĠKent": 6653,
      "ups": 6654,
      "Ġmeal": 6655,
      "Ġclothing": 6656,
      "Ġprepar": 6657,
      "oyd": 6658,
      "Ġamazing": 6659,
      "Ġentry": 6660,
      "Ġextensive": 6661,
      "Ġ1976": 6662,
      "Ġexpert": 6663,
      "ĠProv": 6664,
      "ĠConst": 6665,
      "Ġprofession": 6666,
      "Ġdescribes": 6667,
      "Ġpotatoes": 6668,
      "Ġpromoted": 6669,
      "Ġcharacterized": 6670,
      "Ġguid": 6671,
      "Ġdepict": 6672,
      "Ġguitarist": 6673,
      "Ġtournaments": 6674,
      "Ġexistence": 6675,
      "ĠSecurity": 6676,
      "Ġcommunicate": 6677,
      "wiki": 6678,
      "wikipedia": 6679,
      "ĠPersian": 6680,
      "Ġspirit": 6681,
      "Ġdedicated": 6682,
      "85": 6683,
      "Main": 6684,
      "egan": 6685,
      "from": 6686,
      "Ġlots": 6687,
      "ĠSri": 6688,
      "urrent": 6689,
      "ationally": 6690,
      "ĠML": 6691,
      "ĠMid": 6692,
      "ĠMake": 6693,
      "ĠHung": 6694,
      "ĠFe": 6695,
      "Ġconsequ": 6696,
      "ĠGram": 6697,
      "oper": 6698,
      "ĠWhe": 6699,
      "ĠLater": 6700,
      "ĠLiber": 6701,
      "Ġseed": 6702,
      "Ġshares": 6703,
      "Ġtradition": 6704,
      "inder": 6705,
      "Ġresident": 6706,
      "ibbean": 6707,
      "oven": 6708,
      "Ġcolle": 6709,
      "inson": 6710,
      "Ġrelative": 6711,
      "Ġinteract": 6712,
      "ĠArm": 6713,
      "axy": 6714,
      "Ġgrape": 6715,
      "Ġleads": 6716,
      "Ġseconds": 6717,
      "Ġbackground": 6718,
      "incoln": 6719,
      "Ġvaluable": 6720,
      "Ġmarathon": 6721,
      "Ġcombat": 6722,
      "ĠOrigin": 6723,
      "ĠPrince": 6724,
      "ĠBoard": 6725,
      "ĠMcD": 6726,
      "Ġhotel": 6727,
      "Ġversions": 6728,
      "ospital": 6729,
      "Although": 6730,
      "ĠCharl": 6731,
      "Ġdatas": 6732,
      "Ġhorse": 6733,
      "Ġarrived": 6734,
      "Ġdoub": 6735,
      "aturally": 6736,
      "Ġcamera": 6737,
      "allel": 6738,
      "ĠFoundation": 6739,
      "Ġorders": 6740,
      "ladesh": 6741,
      "33": 6742,
      "Cl": 6743,
      "den": 6744,
      "fess": 6745,
      "friend": 6746,
      "gram": 6747,
      "no": 6748,
      "pop": 6749,
      "hent": 6750,
      "atar": 6751,
      "Ġcensus": 6752,
      "itro": 6753,
      "Ġble": 6754,
      "Ġbull": 6755,
      "Ġmart": 6756,
      "Ġhom": 6757,
      "ĠSund": 6758,
      "ĠTok": 6759,
      "ĠMand": 6760,
      "ĠBad": 6761,
      "Ġyield": 6762,
      "ĠPur": 6763,
      "ĠPower": 6764,
      "vere": 6765,
      "oding": 6766,
      "ĠRad": 6767,
      "ĠNep": 6768,
      "ĠEs": 6769,
      "pping": 6770,
      "ĠStand": 6771,
      "Ġarran": 6772,
      "ĠYellow": 6773,
      "Ġrecre": 6774,
      "Ġformation": 6775,
      "athlon": 6776,
      "ĠSpring": 6777,
      "ronic": 6778,
      "Ġownership": 6779,
      "apping": 6780,
      "Ġideal": 6781,
      "Ġtraveling": 6782,
      "Ġconfir": 6783,
      "istered": 6784,
      "Ġhappened": 6785,
      "Ġcampus": 6786,
      "Ġissued": 6787,
      "ĠRoosevelt": 6788,
      "Ġfunds": 6789,
      "ĠRepublican": 6790,
      "ĠDelhi": 6791,
      "Ġcredited": 6792,
      "Ġfighting": 6793,
      "ĠNorway": 6794,
      "ĠSteve": 6795,
      "Ġmillenn": 6796,
      "ĠBasketball": 6797,
      "Ġdrama": 6798,
      "Ġuniversities": 6799,
      "ĠHuman": 6800,
      "Ġhundreds": 6801,
      "ĠPennsylvania": 6802,
      "ĠTreaty": 6803,
      "Are": 6804,
      "Che": 6805,
      "PA": 6806,
      "Red": 6807,
      "aik": 6808,
      "come": 6809,
      "ds": 6810,
      "gium": 6811,
      "ÊĬ": 6812,
      "Ġtables": 6813,
      "ito": 6814,
      "Ġboy": 6815,
      "Ġpush": 6816,
      "ĠSat": 6817,
      "Ġnaturally": 6818,
      "ĠIv": 6819,
      "ĠPre": 6820,
      "ĠGib": 6821,
      "ĠLin": 6822,
      "ĠLife": 6823,
      "ĠLank": 6824,
      "ĠEconom": 6825,
      "ĠOsc": 6826,
      "Ġcompos": 6827,
      "Ġcomposition": 6828,
      "ĠStadium": 6829,
      "Ġnothing": 6830,
      "Ġnotably": 6831,
      "earl": 6832,
      "ĠVan": 6833,
      "Ġresistance": 6834,
      "Ġelectro": 6835,
      "Ġfeat": 6836,
      "Ġphase": 6837,
      "Ġdecide": 6838,
      "ĠSports": 6839,
      "Ġassess": 6840,
      "Ġwinners": 6841,
      "Ġpassing": 6842,
      "Ġexped": 6843,
      "iously": 6844,
      "Ġ1961": 6845,
      "Ġ1962": 6846,
      "Ġvisited": 6847,
      "Ġautism": 6848,
      "Ġapart": 6849,
      "Ġairpl": 6850,
      "Ġexperiences": 6851,
      "Ġedge": 6852,
      "Ġ1958": 6853,
      "Ġ1949": 6854,
      "Ġbusinesses": 6855,
      "Ġcontrols": 6856,
      "Ġchanging": 6857,
      "ĠParliament": 6858,
      "Ġhappens": 6859,
      "Ġelimin": 6860,
      "Ġattempts": 6861,
      "ĠCaptain": 6862,
      "Ġintegration": 6863,
      "Ġcopies": 6864,
      "Ġjourney": 6865,
      "ĠDevelopment": 6866,
      "42": 6867,
      "El": 6868,
      "iat": 6869,
      "mas": 6870,
      "rin": 6871,
      "yan": 6872,
      "ĠÐ": 6873,
      "Ġaf": 6874,
      "Ġoven": 6875,
      "anj": 6876,
      "Ġfell": 6877,
      "arat": 6878,
      "Ġpul": 6879,
      "Ġpand": 6880,
      "Ġdough": 6881,
      "Ġhall": 6882,
      "Ġgases": 6883,
      "ceived": 6884,
      "ĠWin": 6885,
      "ĠWomen": 6886,
      "ĠNic": 6887,
      "abits": 6888,
      "Ġriding": 6889,
      "ĠJul": 6890,
      "ogy": 6891,
      "Ġenh": 6892,
      "Ġrocks": 6893,
      "oves": 6894,
      "Ġ49": 6895,
      "Ġnewly": 6896,
      "Ġanyone": 6897,
      "ĠDead": 6898,
      "Ġcrew": 6899,
      "Ġmeters": 6900,
      "ucks": 6901,
      "Ġclassic": 6902,
      "Ġequivalent": 6903,
      "ĠCaribbean": 6904,
      "Ġinvolve": 6905,
      "Ġprotection": 6906,
      "Ġbroadcast": 6907,
      "forcement": 6908,
      "Ġopportunities": 6909,
      "Aust": 6910,
      "Pe": 6911,
      "care": 6912,
      "https": 6913,
      "tical": 6914,
      "anes": 6915,
      "arant": 6916,
      "ĠAS": 6917,
      "oli": 6918,
      "iva": 6919,
      "igs": 6920,
      "ĠMun": 6921,
      "Ġbears": 6922,
      "Ġstations": 6923,
      "ĠPink": 6924,
      "ĠDub": 6925,
      "ĠWimbledon": 6926,
      "Ġvaries": 6927,
      "ĠLamb": 6928,
      "ĠStra": 6929,
      "ordin": 6930,
      "Ġresorts": 6931,
      "ĠThree": 6932,
      "Ġrais": 6933,
      "Ġraise": 6934,
      "2017": 6935,
      "ĠIndepend": 6936,
      "Ġlock": 6937,
      "Ġmanner": 6938,
      "Ġcreates": 6939,
      "Ġpoly": 6940,
      "Ġshell": 6941,
      "ĠĠĠ": 6942,
      "ĠProject": 6943,
      "Ġcomputing": 6944,
      "Ġ1959": 6945,
      "Ġsupporting": 6946,
      "Ġinvestig": 6947,
      "Ġfocuses": 6948,
      "Ġcharges": 6949,
      "ĠSoft": 6950,
      "Ġphilosophy": 6951,
      "ĠSolar": 6952,
      "ĠBangladesh": 6953,
      "Ġkitchen": 6954,
      "ĠLucas": 6955,
      "Ġathletes": 6956,
      "Ġroughly": 6957,
      "Ġpermanent": 6958,
      "ĠBeatles": 6959,
      "ĠPradesh": 6960,
      "hattan": 6961,
      "Ġpolicies": 6962,
      "BO": 6963,
      "Born": 6964,
      "HL": 6965,
      "haps": 6966,
      "oir": 6967,
      "person": 6968,
      "pris": 6969,
      "rant": 6970,
      "Ġsac": 6971,
      "Ġsister": 6972,
      "Ġburn": 6973,
      "Ġinaug": 6974,
      "oming": 6975,
      "Ġly": 6976,
      "Ġlibrary": 6977,
      "rozen": 6978,
      "ĠTre": 6979,
      "ĠTower": 6980,
      "Ġthin": 6981,
      "iga": 6982,
      "ĠMr": 6983,
      "ĠHur": 6984,
      "osen": 6985,
      "ĠLine": 6986,
      "ĠEven": 6987,
      "ocated": 6988,
      "abad": 6989,
      "Ġsector": 6990,
      "Ġplenty": 6991,
      "appe": 6992,
      "ĠKafka": 6993,
      "Ġmeant": 6994,
      "Ġ34": 6995,
      "Ġdesired": 6996,
      "Ġtheme": 6997,
      "Ġgenes": 6998,
      "ĠSega": 6999,
      "ĠLee": 7000,
      "ĠLeg": 7001,
      "Ġfounding": 7002,
      "Ġminister": 7003,
      "Ġinfect": 7004,
      "romagn": 7005,
      "Ġtopic": 7006,
      "Ġsixth": 7007,
      "Ġfreedom": 7008,
      "umbai": 7009,
      "artered": 7010,
      "ercury": 7011,
      "Ġpayment": 7012,
      "ĠMadrid": 7013,
      "ĠApache": 7014,
      "nesota": 7015,
      "Ġsubsequent": 7016,
      "ĠUtah": 7017,
      "hentic": 7018,
      "91": 7019,
      "IN": 7020,
      "bury": 7021,
      "vements": 7022,
      "Ġsed": 7023,
      "ndom": 7024,
      "Ġce": 7025,
      "Ġcock": 7026,
      "Ġwars": 7027,
      "Ġmic": 7028,
      "Ġmale": 7029,
      "icious": 7030,
      "omy": 7031,
      "Ġlakes": 7032,
      "ami": 7033,
      "amber": 7034,
      "ĠCop": 7035,
      "racy": 7036,
      "idae": 7037,
      "Ġonto": 7038,
      "ĠBry": 7039,
      "thur": 7040,
      "ĠFall": 7041,
      "ĠFestival": 7042,
      "ĠWalk": 7043,
      "ĠNiger": 7044,
      "ĠEthiop": 7045,
      "ardo": 7046,
      "ĠStory": 7047,
      "Ġpartners": 7048,
      "phant": 7049,
      "Ġrandom": 7050,
      "Ġmode": 7051,
      "Ġnoise": 7052,
      "ĠDef": 7053,
      "iveness": 7054,
      "Ġskate": 7055,
      "ĠShow": 7056,
      "Ġbrew": 7057,
      "Ġauth": 7058,
      "Ġbatting": 7059,
      "Ġengineers": 7060,
      "Ġafford": 7061,
      "ĠCommun": 7062,
      "ĠCountry": 7063,
      "Ġcooked": 7064,
      "Ġhistoric": 7065,
      "Ġhosted": 7066,
      "Ġclaims": 7067,
      "ĠPeru": 7068,
      "Ġreviews": 7069,
      "Ġagreed": 7070,
      "iconduct": 7071,
      "Ġabsor": 7072,
      "Ġvocal": 7073,
      "Ġexactly": 7074,
      "Desc": 7075,
      "ĠTemple": 7076,
      "Ġcandidate": 7077,
      "ĠBuddh": 7078,
      "Ġvulner": 7079,
      "Ġvarieties": 7080,
      "46": 7081,
      "IC": 7082,
      "da": 7083,
      "des": 7084,
      "fire": 7085,
      "gra": 7086,
      "iary": 7087,
      "kins": 7088,
      "oons": 7089,
      "pet": 7090,
      "rating": 7091,
      "Ġtrib": 7092,
      "Ġtherapy": 7093,
      "Ġcm": 7094,
      "Ġcro": 7095,
      "Ġcart": 7096,
      "Ġmist": 7097,
      "Ġmild": 7098,
      "asure": 7099,
      "Ġtold": 7100,
      "Ġdownt": 7101,
      "Ġlift": 7102,
      "ĠSet": 7103,
      "ĠTop": 7104,
      "ĠAst": 7105,
      "ĠAud": 7106,
      "usiness": 7107,
      "Ġbeaches": 7108,
      "erse": 7109,
      "ĠBird": 7110,
      "Ġstead": 7111,
      "ĠPost": 7112,
      "Ġalt": 7113,
      "Ġconqu": 7114,
      "Ġproced": 7115,
      "ĠNap": 7116,
      "Ġhem": 7117,
      "ĠUniverse": 7118,
      "Ġroot": 7119,
      "away": 7120,
      "Ġattached": 7121,
      "Ġtransactions": 7122,
      "anguage": 7123,
      "Ġmoves": 7124,
      "pending": 7125,
      "Ġsigns": 7126,
      "Ġretail": 7127,
      "nament": 7128,
      "ĠProt": 7129,
      "Ġ1957": 7130,
      "Ġstanding": 7131,
      "comm": 7132,
      "2008": 7133,
      "Ġalongside": 7134,
      "Ġobjective": 7135,
      "Ġstatistical": 7136,
      "Ġcrime": 7137,
      "Ġyounger": 7138,
      "Ġgradually": 7139,
      "Ġsuggested": 7140,
      "related": 7141,
      "Ġhybrid": 7142,
      "Ġcrisis": 7143,
      "Ġexperienced": 7144,
      "Ġnewspaper": 7145,
      "Ġfundamental": 7146,
      "AR": 7147,
      "bi": 7148,
      "feld": 7149,
      "hire": 7150,
      "mouth": 7151,
      "night": 7152,
      "tles": 7153,
      "Ġtal": 7154,
      "Ġtail": 7155,
      "Ġwal": 7156,
      "Ġfoss": 7157,
      "Ġfilled": 7158,
      "Ġtoward": 7159,
      "ĠSide": 7160,
      "ĠTest": 7161,
      "ĠTasman": 7162,
      "ĠCall": 7163,
      "ĠCold": 7164,
      "ĠMagn": 7165,
      "ĠWalt": 7166,
      "ĠLes": 7167,
      "ĠLincoln": 7168,
      "ĠEag": 7169,
      "Ġusage": 7170,
      "Ġshut": 7171,
      "Ġshall": 7172,
      "Ġinches": 7173,
      "Ġabst": 7174,
      "Ġweigh": 7175,
      "Ġresort": 7176,
      "Ġscene": 7177,
      "wegian": 7178,
      "Ġdisorder": 7179,
      "ova": 7180,
      "ĠIndones": 7181,
      "Ġ48": 7182,
      "Ġloan": 7183,
      "Ġefforts": 7184,
      "Ġ1978": 7185,
      "Ġmedals": 7186,
      "Ġfinding": 7187,
      "Ġpolitics": 7188,
      "ographical": 7189,
      "ĠExpl": 7190,
      "Ġindustries": 7191,
      "Ġmagnitude": 7192,
      "affe": 7193,
      "Ġfrequency": 7194,
      "Ġreligion": 7195,
      "Provide": 7196,
      "Ġinhabit": 7197,
      "ĠJefferson": 7198,
      "ĠHemisphere": 7199,
      "Ġphrase": 7200,
      "Ġcuisine": 7201,
      "ducation": 7202,
      "ĠEntertainment": 7203,
      "43": 7204,
      "Go": 7205,
      "ML": 7206,
      "lt": 7207,
      "run": 7208,
      "Ġicon": 7209,
      "Ġtube": 7210,
      "inch": 7211,
      "Ġcake": 7212,
      "Ġped": 7213,
      "Ġpets": 7214,
      "Ġmal": 7215,
      "icing": 7216,
      "Ġlies": 7217,
      "ĠTiger": 7218,
      "Ġnor": 7219,
      "ĠMarg": 7220,
      "ĠBridge": 7221,
      "ĠFant": 7222,
      "ĠFred": 7223,
      "Ġyouth": 7224,
      "ĠLim": 7225,
      "ĠEv": 7226,
      "ĠEinstein": 7227,
      "Ġrom": 7228,
      "Ġseems": 7229,
      "Ġexclus": 7230,
      "ĠJean": 7231,
      "ogue": 7232,
      "Ġspons": 7233,
      "Ġcluster": 7234,
      "ultane": 7235,
      "Ġotherwise": 7236,
      "2020": 7237,
      "Ġgenome": 7238,
      "Ġ400": 7239,
      "Ġages": 7240,
      "Ġaccel": 7241,
      "Ġinvent": 7242,
      "Ġunderlying": 7243,
      "ĠLeon": 7244,
      "Ġtransistor": 7245,
      "Ġmaintenance": 7246,
      "Ġkeys": 7247,
      "Ġgovernments": 7248,
      "Ġsunlight": 7249,
      "ĠExp": 7250,
      "Ġcircle": 7251,
      "Ġdebt": 7252,
      "ĠManhattan": 7253,
      "ucky": 7254,
      "Ġdiagn": 7255,
      "Ġroads": 7256,
      "sterdam": 7257,
      "Ġbright": 7258,
      "Ġfailure": 7259,
      "Ġentirely": 7260,
      "Ġbehavi": 7261,
      "Ġimmig": 7262,
      "Ġprompting": 7263,
      "Ġchallenging": 7264,
      "ruption": 7265,
      "Ġtower": 7266,
      "Ġsubstant": 7267,
      "Ġcomfortable": 7268,
      "Ġpandemic": 7269,
      "92": 7270,
      "bes": 7271,
      "dr": 7272,
      "ek": 7273,
      "fare": 7274,
      "kar": 7275,
      "lies": 7276,
      "uan": 7277,
      "xis": 7278,
      "Ġmunicip": 7279,
      "Ġham": 7280,
      "ĠCreek": 7281,
      "ĠImp": 7282,
      "Ġyoga": 7283,
      "ĠWW": 7284,
      "ĠNick": 7285,
      "Ġvine": 7286,
      "ĠEst": 7287,
      "ĠJiang": 7288,
      "Ġchampions": 7289,
      "Ġshif": 7290,
      "Ġshorter": 7291,
      "akh": 7292,
      "ĠIns": 7293,
      "Ġadap": 7294,
      "ĠVegas": 7295,
      "Ġimages": 7296,
      "Ġarmy": 7297,
      "Ġrose": 7298,
      "Ġeval": 7299,
      "Ġgenres": 7300,
      "Ġindoor": 7301,
      "Ġearn": 7302,
      "Ġinteraction": 7303,
      "Ġfinance": 7304,
      "Ġfoundation": 7305,
      "Ġvariations": 7306,
      "enna": 7307,
      "Ġsolutions": 7308,
      "Ġdebate": 7309,
      "Ġvolcan": 7310,
      "Ġmixture": 7311,
      "Ġdetermined": 7312,
      "Ġgraduated": 7313,
      "Ġcloser": 7314,
      "Ġintegrated": 7315,
      "Ġpercentage": 7316,
      "Ġdominant": 7317,
      "Ġfirms": 7318,
      "ĠFranklin": 7319,
      "Ġprinciples": 7320,
      "Ġtuning": 7321,
      "Ġcorner": 7322,
      "Ġpilot": 7323,
      "Ġobtained": 7324,
      "ĠGovernment": 7325,
      "Ġresearchers": 7326,
      "Ġseventh": 7327,
      "ĠWarriors": 7328,
      "ynasty": 7329,
      "95": 7330,
      "Car": 7331,
      "Japan": 7332,
      "Man": 7333,
      "Par": 7334,
      "bal": 7335,
      "cers": 7336,
      "hall": 7337,
      "heastern": 7338,
      "inot": 7339,
      "anas": 7340,
      "Ġfab": 7341,
      "Ġplease": 7342,
      "Ġhoney": 7343,
      "ĠTel": 7344,
      "Ġthrow": 7345,
      "ĠCre": 7346,
      "ushed": 7347,
      "igma": 7348,
      "ĠBack": 7349,
      "tery": 7350,
      "ĠHun": 7351,
      "Ġanx": 7352,
      "ĠGre": 7353,
      "ĠRel": 7354,
      "Ġvit": 7355,
      "ocation": 7356,
      "Ġleagues": 7357,
      "oodle": 7358,
      "Ġjazz": 7359,
      "Ġroast": 7360,
      "Ġspeak": 7361,
      "Ġdesk": 7362,
      "ĠLeb": 7363,
      "ĠArsenal": 7364,
      "Ġdefensive": 7365,
      "Ġtransition": 7366,
      "Ġemb": 7367,
      "Ġparallel": 7368,
      "Ġvision": 7369,
      "ounced": 7370,
      "ĠAtt": 7371,
      "Ġlights": 7372,
      "ĠPhoen": 7373,
      "Ġfacts": 7374,
      "orps": 7375,
      "Ġtrig": 7376,
      "Ġfriendly": 7377,
      "Ġterrain": 7378,
      "Ġcircum": 7379,
      "Ġbreakfast": 7380,
      "ĠMalays": 7381,
      "Ġfigs": 7382,
      "Ġsituations": 7383,
      "Ġdelivery": 7384,
      "Ġbirthday": 7385,
      "Ġadministrative": 7386,
      "ĠPortuguese": 7387,
      "Ġmathematics": 7388,
      "Ġmammals": 7389,
      "Ġpeanut": 7390,
      "Ġscholars": 7391,
      "Ġintellectual": 7392,
      "unciation": 7393,
      "41": 7394,
      "DC": 7395,
      "Famous": 7396,
      "West": 7397,
      "found": 7398,
      "log": 7399,
      "long": 7400,
      "rig": 7401,
      "Ð°": 7402,
      "Ġcrow": 7403,
      "Ġdream": 7404,
      "Ġrear": 7405,
      "Ġreact": 7406,
      "Ġrenamed": 7407,
      "Ġgiant": 7408,
      "ĠBos": 7409,
      "Ġalle": 7410,
      "ĠFurther": 7411,
      "ĠDou": 7412,
      "ĠWork": 7413,
      "Ġdeck": 7414,
      "antly": 7415,
      "Ġchosen": 7416,
      "Ġcompl": 7417,
      "Ġteeth": 7418,
      "ĠStat": 7419,
      "rane": 7420,
      "luded": 7421,
      "ruit": 7422,
      "Ġraces": 7423,
      "2023": 7424,
      "ften": 7425,
      "Ġboot": 7426,
      "Ġsubsc": 7427,
      "ronze": 7428,
      "Ġsurpass": 7429,
      "cycle": 7430,
      "Ġ1967": 7431,
      "Ġbases": 7432,
      "Ġshowing": 7433,
      "Ġ1941": 7434,
      "ĠHarvard": 7435,
      "Ġpractical": 7436,
      "ĠSupreme": 7437,
      "Ġcompletion": 7438,
      "Ġfalls": 7439,
      "Ġsteel": 7440,
      "ĠMinnesota": 7441,
      "ĠWilliams": 7442,
      "Ġmaintained": 7443,
      "Ġresource": 7444,
      "ĠDelta": 7445,
      "Ġbeauty": 7446,
      "ĠSocial": 7447,
      "Ã¡n": 7448,
      "ĠAnton": 7449,
      "Ġslowly": 7450,
      "ĠPatri": 7451,
      "Ġperspective": 7452,
      "Ġmagazine": 7453,
      "ĠWoods": 7454,
      "Ġholidays": 7455,
      "Ġsustain": 7456,
      "tuning": 7457,
      "ĠCambridge": 7458,
      "Ġexercises": 7459,
      "\"?": 7460,
      ".:": 7461,
      "Day": 7462,
      "aver": 7463,
      "iu": 7464,
      "uum": 7465,
      "ãĥ": 7466,
      "Ġaid": 7467,
      "inity": 7468,
      "erg": 7469,
      "Ġsays": 7470,
      "Ġware": 7471,
      "Ġpra": 7472,
      "Ġpairs": 7473,
      "Ġmile": 7474,
      "Ġisn": 7475,
      "eless": 7476,
      "ĠSau": 7477,
      "ĠChen": 7478,
      "ĠCelt": 7479,
      "iden": 7480,
      "idation": 7481,
      "idge": 7482,
      "ĠIrish": 7483,
      "ĠBru": 7484,
      "ĠPict": 7485,
      "ĠFood": 7486,
      "ĠWinter": 7487,
      "Ġseats": 7488,
      "ĠJupiter": 7489,
      "sey": 7490,
      "ĠOf": 7491,
      "Ġleaf": 7492,
      "ĠStart": 7493,
      "Ġspr": 7494,
      "ĠChile": 7495,
      "Ġunion": 7496,
      "Ġknew": 7497,
      "Ġcommission": 7498,
      "ildren": 7499,
      "oving": 7500,
      "ĠSever": 7501,
      "Ġampl": 7502,
      "issions": 7503,
      "ugg": 7504,
      "Ġsmooth": 7505,
      "Ġasset": 7506,
      "iverpool": 7507,
      "Ġvisible": 7508,
      "Ġ99": 7509,
      "Ġstream": 7510,
      "ĠAllen": 7511,
      "Ġpromote": 7512,
      "Ġlowest": 7513,
      "Ġdepart": 7514,
      "Ġsites": 7515,
      "Ġholding": 7516,
      "Ġemployed": 7517,
      "ĠSlam": 7518,
      "ĠPrix": 7519,
      "Ġcharging": 7520,
      "Ġborders": 7521,
      "Ġaffected": 7522,
      "Ġcopper": 7523,
      "Ġdelivered": 7524,
      "ĠMorocco": 7525,
      "Ġcontributions": 7526,
      "Ġtrading": 7527,
      "India": 7528,
      "ĠKorean": 7529,
      "ĠBengal": 7530,
      "Ġteacher": 7531,
      "ÉĳËĲ": 7532,
      "Ġsoup": 7533,
      "ĠGandhi": 7534,
      "ĠColombia": 7535,
      "AA": 7536,
      "Af": 7537,
      "Not": 7538,
      "ON": 7539,
      "fol": 7540,
      "father": 7541,
      "kin": 7542,
      "rame": 7543,
      "rants": 7544,
      "vada": 7545,
      "ÉĶ": 7546,
      "Ø§": 7547,
      "Ġtub": 7548,
      "Ġinequ": 7549,
      "Ġdress": 7550,
      "ilit": 7551,
      "stood": 7552,
      "Ġreign": 7553,
      "otam": 7554,
      "Ġstages": 7555,
      "unior": 7556,
      "ifies": 7557,
      "ĠHal": 7558,
      "ĠHistor": 7559,
      "ĠField": 7560,
      "ĠDig": 7561,
      "opotam": 7562,
      "ĠLet": 7563,
      "ĠEaster": 7564,
      "ĠOd": 7565,
      "ipel": 7566,
      "ĠKar": 7567,
      "rypt": 7568,
      "anyon": 7569,
      "ricted": 7570,
      "Ġunknown": 7571,
      "oker": 7572,
      "Ġtrains": 7573,
      "2010": 7574,
      "Ġactors": 7575,
      "Ġaccomp": 7576,
      "Ġlists": 7577,
      "Ġdecor": 7578,
      "iolet": 7579,
      "Ġemphas": 7580,
      "Ġparad": 7581,
      "ĠPhys": 7582,
      "Ġreceiving": 7583,
      "Ġfewer": 7584,
      "Ġprotocol": 7585,
      "ĠMusk": 7586,
      "ĠExamples": 7587,
      "ĠPrinc": 7588,
      "Ġhappen": 7589,
      "Ġavailability": 7590,
      "Ġviewed": 7591,
      "ĠEdward": 7592,
      "Ġradiation": 7593,
      "Ġfunctional": 7594,
      "Ġranking": 7595,
      "Ġvegetable": 7596,
      "Ġcoastal": 7597,
      "Ġcontributed": 7598,
      "Ġtomato": 7599,
      "Ġangle": 7600,
      "ĠMagic": 7601,
      "Ġrailway": 7602,
      "ĠMachine": 7603,
      "Ġhorizon": 7604,
      "Ġminerals": 7605,
      "ĠUkraine": 7606,
      "Ġexcellent": 7607,
      "\"),": 7608,
      "63": 7609,
      "App": 7610,
      "Sum": 7611,
      "Ste": 7612,
      "cest": 7613,
      "chest": 7614,
      "eing": 7615,
      "iot": 7616,
      "nel": 7617,
      "zing": 7618,
      "Ġign": 7619,
      "iner": 7620,
      "erb": 7621,
      "Ġsan": 7622,
      "Ġbrows": 7623,
      "Ġmit": 7624,
      "Ġlas": 7625,
      "roid": 7626,
      "ĠTri": 7627,
      "ĠToday": 7628,
      "Ġstone": 7629,
      "ĠPass": 7630,
      "ĠHor": 7631,
      "ĠHockey": 7632,
      "ĠDam": 7633,
      "avid": 7634,
      "ĠNa": 7635,
      "ĠNar": 7636,
      "ĠLew": 7637,
      "Ġ1920": 7638,
      "Ġheard": 7639,
      "Ġexam": 7640,
      "Ġexternal": 7641,
      "eller": 7642,
      "ĠStock": 7643,
      "Ġreserv": 7644,
      "ĠThus": 7645,
      "Ġdismiss": 7646,
      "Ġevolved": 7647,
      "2014": 7648,
      "Ġgenetic": 7649,
      "Ġ55": 7650,
      "Ġdecre": 7651,
      "Ġdecay": 7652,
      "Ġpresidency": 7653,
      "Ġtransaction": 7654,
      "Ġdevelopers": 7655,
      "ancer": 7656,
      "onto": 7657,
      "Ġengaged": 7658,
      "ĠAdd": 7659,
      "Ġexperiment": 7660,
      "ĠAustin": 7661,
      "Ġlands": 7662,
      "Ġseek": 7663,
      "anna": 7664,
      "Ġ1933": 7665,
      "zech": 7666,
      "Ġkeyboard": 7667,
      "Ġkeeping": 7668,
      "Ġformerly": 7669,
      "Ġstatement": 7670,
      "ĠNevada": 7671,
      "Ġportion": 7672,
      "Ġsteak": 7673,
      "ĠSecret": 7674,
      "Ġcardi": 7675,
      "Ġregarding": 7676,
      "opped": 7677,
      "Ġsaying": 7678,
      "Ġparticipate": 7679,
      "offs": 7680,
      "ĠBelgium": 7681,
      "Ġpopulations": 7682,
      "Ġsatell": 7683,
      "Ġkingdom": 7684,
      "Ġsilver": 7685,
      "ĠArabic": 7686,
      "Ġtransferred": 7687,
      "Ġinjury": 7688,
      "Ġmillions": 7689,
      "Ġmathematical": 7690,
      "ĠDaniel": 7691,
      "Ġpronunciation": 7692,
      "ĠPelÃ©": 7693,
      "ĠRoger": 7694,
      "Ġgrocery": 7695,
      "Ġnortheast": 7696,
      "ioxide": 7697,
      "Ġmartial": 7698,
      "ĠNepal": 7699,
      "76": 7700,
      "Electric": 7701,
      "ho": 7702,
      "how": 7703,
      "hop": 7704,
      "ji": 7705,
      "pher": 7706,
      "uce": 7707,
      "world": 7708,
      "western": 7709,
      "Ġcraft": 7710,
      "Ġwrong": 7711,
      "itt": 7712,
      "Ġfa": 7713,
      "Ġmarg": 7714,
      "ĠTun": 7715,
      "ĠTyp": 7716,
      "ĠCard": 7717,
      "ĠCross": 7718,
      "ĠCanyon": 7719,
      "urning": 7720,
      "ĠMountains": 7721,
      "uty": 7722,
      "ersion": 7723,
      "iffer": 7724,
      "emble": 7725,
      "ĠDj": 7726,
      "ĠDun": 7727,
      "allas": 7728,
      "Ġhear": 7729,
      "Ġexcess": 7730,
      "ogan": 7731,
      "Ġshop": 7732,
      "Ġshift": 7733,
      "Ġdoors": 7734,
      "Ġformally": 7735,
      "Ġlooks": 7736,
      "Ġdriven": 7737,
      "ĠShan": 7738,
      "Ġsimultane": 7739,
      "ĠSciences": 7740,
      "Ġ150": 7741,
      "Ġphysic": 7742,
      "ĠMuslim": 7743,
      "Ġguide": 7744,
      "Ġreduces": 7745,
      "Ġsteam": 7746,
      "ĠAirlines": 7747,
      "ĠRomania": 7748,
      "Ġsituated": 7749,
      "Ġmerged": 7750,
      "Ġmagic": 7751,
      "Ġadvantages": 7752,
      "Ġbrothers": 7753,
      "ĠKhan": 7754,
      "Ġvocals": 7755,
      "Ġheadquartered": 7756,
      "ĠPanama": 7757,
      "Ġranging": 7758,
      "audi": 7759,
      "Ġsenior": 7760,
      "Ġtorto": 7761,
      "ghanistan": 7762,
      "Bra": 7763,
      "RA": 7764,
      "Russ": 7765,
      "US": 7766,
      "car": 7767,
      "cop": 7768,
      "cons": 7769,
      "hard": 7770,
      "wa": 7771,
      "onna": 7772,
      "Ġcrop": 7773,
      "encies": 7774,
      "Ġfur": 7775,
      "Ġpy": 7776,
      "Ġpupp": 7777,
      "Ġhal": 7778,
      "rooms": 7779,
      "elve": 7780,
      "ĠAC": 7781,
      "oly": 7782,
      "ĠIron": 7783,
      "adow": 7784,
      "Ġyes": 7785,
      "ĠPC": 7786,
      "iform": 7787,
      "aga": 7788,
      "ĠGirl": 7789,
      "ĠDh": 7790,
      "Ġcomedy": 7791,
      "Ġframes": 7792,
      "ĠNatural": 7793,
      "Ġven": 7794,
      "oca": 7795,
      "Ġrib": 7796,
      "ĠJess": 7797,
      "ĠOak": 7798,
      "ogs": 7799,
      "inea": 7800,
      "ĠKey": 7801,
      "izz": 7802,
      "aret": 7803,
      "Ġspices": 7804,
      "Ġcontem": 7805,
      "Ġtrails": 7806,
      "Ġarc": 7807,
      "onda": 7808,
      "Ġrowing": 7809,
      "ampa": 7810,
      "Ġsovere": 7811,
      "obile": 7812,
      "ĠSeven": 7813,
      "Ġoffensive": 7814,
      "Ġprovince": 7815,
      "Ġcapita": 7816,
      "Ġgrains": 7817,
      "Ġexposure": 7818,
      "Ġmusician": 7819,
      "Ġstatistics": 7820,
      "Ġdepos": 7821,
      "Ġhistorically": 7822,
      "ĠRussell": 7823,
      "Ġsentence": 7824,
      "Ġkinds": 7825,
      "Ġnutrit": 7826,
      "flix": 7827,
      "Ġdrinking": 7828,
      "ĠContin": 7829,
      "Ġaccepted": 7830,
      "aturday": 7831,
      "7435": 7832,
      "Ġupdates": 7833,
      "Ġpaintings": 7834,
      "Ġparameters": 7835,
      "ĠMemorial": 7836,
      "Ġneutral": 7837,
      "igenous": 7838,
      "Ġstretch": 7839,
      "Ġinhabitants": 7840,
      "Ne": 7841,
      "han": 7842,
      "mi": 7843,
      "top": 7844,
      "Ġtro": 7845,
      "Ġtips": 7846,
      "ori": 7847,
      "alty": 7848,
      "Ġfellow": 7849,
      "Ġbiking": 7850,
      "Ġpod": 7851,
      "Ġpace": 7852,
      "Ġinner": 7853,
      "Ġdiver": 7854,
      "Ġdioxide": 7855,
      "Ġhip": 7856,
      "Ġreject": 7857,
      "ĠTimes": 7858,
      "cts": 7859,
      "ivia": 7860,
      "ayer": 7861,
      "ĠBorn": 7862,
      "through": 7863,
      "Ġconven": 7864,
      "ĠGro": 7865,
      "ĠGran": 7866,
      "ĠDomin": 7867,
      "osa": 7868,
      "acon": 7869,
      "Ġsex": 7870,
      "ĠJenn": 7871,
      "Ġneur": 7872,
      "bernet": 7873,
      "ĠKer": 7874,
      "ĠKings": 7875,
      "ishop": 7876,
      "Ġcoined": 7877,
      "Ġroy": 7878,
      "Ġpreced": 7879,
      "ailand": 7880,
      "2022": 7881,
      "Ġelections": 7882,
      "hips": 7883,
      "Ġmuscles": 7884,
      "ocked": 7885,
      "Ġsmallest": 7886,
      "Ġauthentic": 7887,
      "certain": 7888,
      "ĠIslam": 7889,
      "Ġshowed": 7890,
      "Ġhandle": 7891,
      "Ġpublicly": 7892,
      "ĠTherefore": 7893,
      "ĠConstitution": 7894,
      "Ġsunny": 7895,
      "Ġpossess": 7896,
      "Ġmonthly": 7897,
      "Ġturns": 7898,
      "Ġflows": 7899,
      "Ġstronger": 7900,
      "ĠMinistry": 7901,
      "Ġyoungest": 7902,
      "Ġdestinations": 7903,
      "Ġaudio": 7904,
      "restling": 7905,
      "Ġcategor": 7906,
      "Ġdiseases": 7907,
      "Ġqualifying": 7908,
      "Ġcelebrated": 7909,
      "Ġsatis": 7910,
      "Ġearthqu": 7911,
      "Ġinjuries": 7912,
      "ĠMoore": 7913,
      "ĠCurrent": 7914,
      "Ġmanufacturers": 7915,
      "Ġopponents": 7916,
      "Ġlinked": 7917,
      "Ġphenomena": 7918,
      "uerto": 7919,
      "ĠToyota": 7920,
      "ĠMesopotam": 7921,
      "Ġbench": 7922,
      "Ġraisins": 7923,
      "87": 7924,
      "AP": 7925,
      "Because": 7926,
      "SP": 7927,
      "Vs": 7928,
      "bage": 7929,
      "called": 7930,
      "gate": 7931,
      "zo": 7932,
      "eron": 7933,
      "real": 7934,
      "Ġodd": 7935,
      "Ġwaves": 7936,
      "Ġfill": 7937,
      "Ġpun": 7938,
      "Ġinduct": 7939,
      "Ġment": 7940,
      "Ġmur": 7941,
      "Ġhang": 7942,
      "ĠTai": 7943,
      "Ġgall": 7944,
      "olt": 7945,
      "olph": 7946,
      "ĠCle": 7947,
      "ĠGet": 7948,
      "ĠDar": 7949,
      "Ġproof": 7950,
      "Ġvon": 7951,
      "Ġvegan": 7952,
      "ĠLo": 7953,
      "ĠLiverpool": 7954,
      "ĠEarly": 7955,
      "ĠEducation": 7956,
      "ateur": 7957,
      "Ġincred": 7958,
      "ĠInvest": 7959,
      "Ġscores": 7960,
      "Ġouter": 7961,
      "Ġsynd": 7962,
      "ĠArthur": 7963,
      "Ġpreserved": 7964,
      "Ġmetric": 7965,
      "Ġending": 7966,
      "Ġpersonality": 7967,
      "Ġsecondary": 7968,
      "ĠComputer": 7969,
      "Ġclassification": 7970,
      "Ġ1956": 7971,
      "Ġeconomics": 7972,
      "Ġopposing": 7973,
      "Ġbigger": 7974,
      "ĠManagement": 7975,
      "Ġconsistent": 7976,
      "ĠDavis": 7977,
      "ĠAirport": 7978,
      "ĠSerb": 7979,
      "Ġmaintaining": 7980,
      "Ġfacing": 7981,
      "Ġconcepts": 7982,
      "Ġemerged": 7983,
      "Art": 7984,
      "Ġstraw": 7985,
      "ijing": 7986,
      "Ġnuts": 7987,
      "Ġnutri": 7988,
      "Ġfitness": 7989,
      "Ġlifestyle": 7990,
      "ĠNorwegian": 7991,
      "Ã³n": 7992,
      "Ġbreath": 7993,
      "ĠWilson": 7994,
      "Ġassistant": 7995,
      "Ġagriculture": 7996,
      "presso": 7997,
      "ĠFacebook": 7998,
      "ĠLanka": 7999,
      "ĠOscar": 8000,
      "cu": 8001,
      "rity": 8002,
      "ype": 8003,
      "Ġsizes": 8004,
      "Ġwake": 8005,
      "itled": 8006,
      "alog": 8007,
      "Ġfolk": 8008,
      "Ġbought": 8009,
      "Ġinse": 8010,
      "Ġhike": 8011,
      "ĠSound": 8012,
      "ĠSony": 8013,
      "aman": 8014,
      "ĠTan": 8015,
      "ĠTitan": 8016,
      "Ġnav": 8017,
      "ĠCru": 8018,
      "chang": 8019,
      "uten": 8020,
      "ĠBah": 8021,
      "aded": 8022,
      "unar": 8023,
      "herry": 8024,
      "ĠFox": 8025,
      "ĠGall": 8026,
      "ĠNik": 8027,
      "ĠLabor": 8028,
      "Ġmoist": 8029,
      "apol": 8030,
      "Ġsharing": 8031,
      "ĠKir": 8032,
      "ects": 8033,
      "aren": 8034,
      "Ġjur": 8035,
      "Ġdispl": 8036,
      "Ġquot": 8037,
      "rence": 8038,
      "Ġinstance": 8039,
      "ĠArk": 8040,
      "Ġhelping": 8041,
      "ĠAnne": 8042,
      "ĠAncient": 8043,
      "afe": 8044,
      "engers": 8045,
      "Ġsevere": 8046,
      "Ġvalued": 8047,
      "Ġdescription": 8048,
      "Ġrestrict": 8049,
      "ĠAfghanistan": 8050,
      "ĠFinancial": 8051,
      "Ġdependent": 8052,
      "Ġdepth": 8053,
      "ambur": 8054,
      "Ġlimits": 8055,
      "ĠChristmas": 8056,
      "Ġpopulated": 8057,
      "ĠTournament": 8058,
      "ythm": 8059,
      "ĠSimilar": 8060,
      "celona": 8061,
      "Ġsurvive": 8062,
      "Ġturning": 8063,
      "abetes": 8064,
      "Ġrepeated": 8065,
      "ĠFerr": 8066,
      "Ġsavings": 8067,
      "Ġpitcher": 8068,
      "Ġbillions": 8069,
      "ĠSquare": 8070,
      "ĠTokyo": 8071,
      "ĠLinux": 8072,
      "61": 8073,
      "CP": 8074,
      "World": 8075,
      "bee": 8076,
      "cut": 8077,
      "rations": 8078,
      "tion": 8079,
      "inals": 8080,
      "inction": 8081,
      "Ġcul": 8082,
      "Ġwider": 8083,
      "organ": 8084,
      "sters": 8085,
      "ĠSa": 8086,
      "ĠSky": 8087,
      "ĠSaturday": 8088,
      "Ġnob": 8089,
      "ĠMatt": 8090,
      "ĠMario": 8091,
      "utation": 8092,
      "Ġasking": 8093,
      "ĠBoy": 8094,
      "ĠPad": 8095,
      "ĠHard": 8096,
      "Ġwaste": 8097,
      "ĠRonald": 8098,
      "ĠKal": 8099,
      "izer": 8100,
      "Ġmeals": 8101,
      "Ġclock": 8102,
      "Ġresolution": 8103,
      "Ġrecipe": 8104,
      "ensed": 8105,
      "ĠAlbert": 8106,
      "Ġ42": 8107,
      "amese": 8108,
      "Ġfinals": 8109,
      "Ġcalls": 8110,
      "forest": 8111,
      "Ġmetropolitan": 8112,
      "Ġexpression": 8113,
      "enness": 8114,
      "pected": 8115,
      "Ġengines": 8116,
      "Ġeveryday": 8117,
      "Ġadvis": 8118,
      "Ġeffectively": 8119,
      "ĠConf": 8120,
      "ĠConnect": 8121,
      "ĠAmsterdam": 8122,
      "Ġespresso": 8123,
      "Ġdiscip": 8124,
      "Ġstructural": 8125,
      "Ġidentity": 8126,
      "Ġpresentation": 8127,
      "Ġhitting": 8128,
      "going": 8129,
      "Ġofficials": 8130,
      "Ġpredomin": 8131,
      "Ġcontaining": 8132,
      "Ġsuggests": 8133,
      "ĠFloyd": 8134,
      "Ġchallenge": 8135,
      "Ġefficiency": 8136,
      "Ġdocuments": 8137,
      "Ġmerch": 8138,
      "Ġplatforms": 8139,
      "ĠTerrier": 8140,
      "Ġmessages": 8141,
      "Ġnominated": 8142,
      "Black": 8143,
      "hetic": 8144,
      "Ġratio": 8145,
      "ĠWalter": 8146,
      "Ġmolecules": 8147,
      "imensional": 8148,
      "Ġsuitable": 8149,
      "Ġchairman": 8150,
      "ĠTechnology": 8151,
      "cosystem": 8152,
      "Ġfeaturing": 8153,
      "Ġdowntown": 8154,
      "ĠIndonesia": 8155,
      "ĠPhoenix": 8156,
      "ĠCeltics": 8157,
      "OT": 8158,
      "gal": 8159,
      "hill": 8160,
      "pret": 8161,
      "vo": 8162,
      "Ġcrack": 8163,
      "Ġfan": 8164,
      "Ġfil": 8165,
      "Ġmand": 8166,
      "Ġhus": 8167,
      "Ġhur": 8168,
      "Ġlap": 8169,
      "rock": 8170,
      "ela": 8171,
      "ĠSum": 8172,
      "Ġgol": 8173,
      "Ġgather": 8174,
      "rays": 8175,
      "imize": 8176,
      "ĠMercury": 8177,
      "uto": 8178,
      "iration": 8179,
      "ĠBud": 8180,
      "Ġstabil": 8181,
      "Ġ($": 8182,
      "ĠHand": 8183,
      "ĠGor": 8184,
      "Ġvirus": 8185,
      "ĠLive": 8186,
      "ĠLear": 8187,
      "ĠLarry": 8188,
      "ocracy": 8189,
      "ĠJam": 8190,
      "ardens": 8191,
      "berry": 8192,
      "mented": 8193,
      "rice": 8194,
      "Ġenem": 8195,
      "Ġunable": 8196,
      "Ġimperial": 8197,
      "Ġscript": 8198,
      "Ġtwenty": 8199,
      "cknow": 8200,
      "ĠIndex": 8201,
      "Ġformula": 8202,
      "Ġamber": 8203,
      "ologists": 8204,
      "Ġsecure": 8205,
      "Ġunderstood": 8206,
      "Ġprovinces": 8207,
      "ĠNewton": 8208,
      "ĠMaria": 8209,
      "Ġvariation": 8210,
      "Ġvariants": 8211,
      "Ġskating": 8212,
      "ĠAnth": 8213,
      "Ġ75": 8214,
      "ĠColl": 8215,
      "Ġestate": 8216,
      "ĠBefore": 8217,
      "Ġpossibly": 8218,
      "laim": 8219,
      "Ġconnections": 8220,
      "Ġfeelings": 8221,
      "ipping": 8222,
      "Ġintroduction": 8223,
      "Ġexisted": 8224,
      "Ġprize": 8225,
      "ĠReserve": 8226,
      "Ġ1929": 8227,
      "Ġargue": 8228,
      "Ġselection": 8229,
      "ĠCapit": 8230,
      "Ġwatching": 8231,
      "Ġattractions": 8232,
      "Ġlabel": 8233,
      "Ġalgorithms": 8234,
      "Ġvoting": 8235,
      "ĠDuke": 8236,
      "Ġolive": 8237,
      "ĠPhilippines": 8238,
      "itrogen": 8239,
      "folio": 8240,
      "bernetes": 8241,
      "August": 8242,
      "Con": 8243,
      "MA": 8244,
      "Mich": 8245,
      "Re": 8246,
      "Te": 8247,
      "Use": 8248,
      "cat": 8249,
      "fe": 8250,
      "founded": 8251,
      "gence": 8252,
      "hu": 8253,
      "mo": 8254,
      "mers": 8255,
      "rub": 8256,
      "É¾": 8257,
      "aters": 8258,
      "isk": 8259,
      "Ġcogn": 8260,
      "Ġcinem": 8261,
      "Ġwait": 8262,
      "Ġfurn": 8263,
      "aro": 8264,
      "Ġmang": 8265,
      "Ġdie": 8266,
      "Ġhob": 8267,
      "Ġhidden": 8268,
      "Ġeighth": 8269,
      "ĠSQL": 8270,
      "etch": 8271,
      "ĠCab": 8272,
      "ushing": 8273,
      "ĠMumbai": 8274,
      "ĠBand": 8275,
      "ĠBroad": 8276,
      "ĠPier": 8277,
      "ĠTheatre": 8278,
      "ĠGord": 8279,
      "ĠDat": 8280,
      "ĠWee": 8281,
      "acc": 8282,
      "ĠEU": 8283,
      "ĠJoh": 8284,
      "ĠJane": 8285,
      "riage": 8286,
      "Ġshopping": 8287,
      "iece": 8288,
      "Ġwheat": 8289,
      "pty": 8290,
      "Ġalliance": 8291,
      "eps": 8292,
      "Ġrooms": 8293,
      "Ġ33": 8294,
      "Ġcolumn": 8295,
      "Ġinvasion": 8296,
      "Ġinteractions": 8297,
      "endment": 8298,
      "Ġdrinks": 8299,
      "Ġpasses": 8300,
      "Ġimportance": 8301,
      "ĠPlace": 8302,
      "Ġtourists": 8303,
      "ĠProduct": 8304,
      "Ġstreets": 8305,
      "Ġ1954": 8306,
      "Ġoccasion": 8307,
      "Ġannually": 8308,
      "Ġtemples": 8309,
      "Ġtrillion": 8310,
      "Ġinvestments": 8311,
      "Ġelevation": 8312,
      "2004": 8313,
      "Ġguarant": 8314,
      "ĠGuinea": 8315,
      "ĠOrder": 8316,
      "Ġdepartment": 8317,
      "standing": 8318,
      "Ġreturns": 8319,
      "Ġfalling": 8320,
      "Ġconsumed": 8321,
      "Ġdefeating": 8322,
      "Ġentertainment": 8323,
      "Ġclosest": 8324,
      "Ġnucle": 8325,
      "ĠCapital": 8326,
      "Ġquarterback": 8327,
      "Ġnormally": 8328,
      "----": 8329,
      "Ġcolonies": 8330,
      "Ġsynthesis": 8331,
      "Ġbanana": 8332,
      "Ġemotions": 8333,
      "Ġsusp": 8334,
      "Ġescape": 8335,
      "Ġwicket": 8336,
      "communic": 8337,
      "Ġadapted": 8338,
      "ĠAntonio": 8339,
      "53": 8340,
      "SS": 8341,
      "aired": 8342,
      "foot": 8343,
      "gi": 8344,
      "pack": 8345,
      "pose": 8346,
      "zy": 8347,
      "É¡": 8348,
      "Ġtight": 8349,
      "inational": 8350,
      "Ġsight": 8351,
      "itime": 8352,
      "Ġfu": 8353,
      "Ġfal": 8354,
      "Ġpadd": 8355,
      "Ġlb": 8356,
      "Ġlapt": 8357,
      "Ġloved": 8358,
      "roit": 8359,
      "Ġecosystem": 8360,
      "ĠSab": 8361,
      "olves": 8362,
      "ĠCorps": 8363,
      "ĠMike": 8364,
      "Ġstable": 8365,
      "agen": 8366,
      "avia": 8367,
      "ĠWolf": 8368,
      "ĠNorm": 8369,
      "ocur": 8370,
      "Ġrural": 8371,
      "Ġplus": 8372,
      "Ġchannel": 8373,
      "They": 8374,
      "aki": 8375,
      "Ġclay": 8376,
      "Ġclient": 8377,
      "Ġuncertain": 8378,
      "Ġcoverage": 8379,
      "Ġschem": 8380,
      "Ġspeaking": 8381,
      "Ġprison": 8382,
      "obs": 8383,
      "Ġquiet": 8384,
      "Ġevolution": 8385,
      "Ġdescend": 8386,
      "190": 8387,
      "Ġelectromagn": 8388,
      "Ġcolour": 8389,
      "lette": 8390,
      "Ġblind": 8391,
      "ĠArctic": 8392,
      "ĠMarc": 8393,
      "Ġassass": 8394,
      "Ġ64": 8395,
      "Ġpolice": 8396,
      "Ġrunner": 8397,
      "Ġmining": 8398,
      "ometry": 8399,
      "ometimes": 8400,
      "Ġpublication": 8401,
      "coming": 8402,
      "ĠAndrew": 8403,
      "Ġpotato": 8404,
      "2001": 8405,
      "Ġinvolving": 8406,
      "ĠCommit": 8407,
      "Young": 8408,
      "Ġpainter": 8409,
      "Ġlauncher": 8410,
      "Ġjoining": 8411,
      "Ġcookies": 8412,
      "Ġportray": 8413,
      "Ġpasta": 8414,
      "Ġconsumer": 8415,
      "Ġliterary": 8416,
      "Ġlatest": 8417,
      "Ġgolden": 8418,
      "Ġcaptured": 8419,
      "Ġcolonial": 8420,
      "Ġdollars": 8421,
      "George": 8422,
      "ĠPeninsula": 8423,
      "Ġpicture": 8424,
      "Ġjacket": 8425,
      "ographer": 8426,
      "ĠJewish": 8427,
      "Ġbacteria": 8428,
      "Ġaccurate": 8429,
      "Ġexperimental": 8430,
      "ĠEthiopia": 8431,
      "Ġanxiety": 8432,
      "ĠTunis": 8433,
      "400": 8434,
      "72": 8435,
      "82": 8436,
      "98": 8437,
      "BI": 8438,
      "Gu": 8439,
      "Port": 8440,
      "SM": 8441,
      "hra": 8442,
      "Ġtied": 8443,
      "Ġwonder": 8444,
      "Ġbaking": 8445,
      "asa": 8446,
      "Ġlung": 8447,
      "Ġlunch": 8448,
      "ĠSon": 8449,
      "ament": 8450,
      "ima": 8451,
      "otal": 8452,
      "othes": 8453,
      "Ġfort": 8454,
      "Ġonion": 8455,
      "urora": 8456,
      "Ġbeings": 8457,
      "irates": 8458,
      "irty": 8459,
      "ĠBusiness": 8460,
      "ĠHistory": 8461,
      "Ġancest": 8462,
      "umps": 8463,
      "ĠDown": 8464,
      "ĠNash": 8465,
      "Ġexists": 8466,
      "ĠOnt": 8467,
      "ghai": 8468,
      "Ġunf": 8469,
      "ĠThailand": 8470,
      "Ġrecover": 8471,
      "Ġsole": 8472,
      "Ġapparent": 8473,
      "2015": 8474,
      "2016": 8475,
      "ints": 8476,
      "Ġagent": 8477,
      "arsh": 8478,
      "ika": 8479,
      "Ġinstruction": 8480,
      "ĠNews": 8481,
      "Ġassign": 8482,
      "Ġassigned": 8483,
      "inking": 8484,
      "Ġ62": 8485,
      "Ġexposed": 8486,
      "Ġsignals": 8487,
      "ventional": 8488,
      "Ġtourism": 8489,
      "Ġexplained": 8490,
      "Ġevening": 8491,
      "Ġoccas": 8492,
      "Ġtitled": 8493,
      "Ġsunrise": 8494,
      "2007": 8495,
      "Ġ1937": 8496,
      "Ġguard": 8497,
      "Ġthoughts": 8498,
      "Ġproperly": 8499,
      "Ġbiology": 8500,
      "Ġemployee": 8501,
      "Ġprotected": 8502,
      "ĠResort": 8503,
      "Ġauthority": 8504,
      "Ġfacilit": 8505,
      "ascular": 8506,
      "Ġsemiconduct": 8507,
      "ĠBuilding": 8508,
      "Spanish": 8509,
      "Ġimplemented": 8510,
      "Ġtomatoes": 8511,
      "Ġspotify": 8512,
      "Ġdocumentary": 8513,
      "Ġnickname": 8514,
      "Ġphenomenon": 8515,
      "Ġdestroyed": 8516,
      "Ġrecipes": 8517,
      "ĠOhio": 8518,
      "Ġadvertising": 8519,
      "Ġsettlement": 8520,
      "ĠDragon": 8521,
      "Ġsucceeded": 8522,
      "ĠSpecial": 8523,
      "ĠSunday": 8524,
      "People": 8525,
      "ĠIndependence": 8526,
      "Ġfossil": 8527,
      "Ġgolfer": 8528,
      "44": 8529,
      "Com": 8530,
      "DR": 8531,
      "Ms": 8532,
      "dess": 8533,
      "iy": 8534,
      "jo": 8535,
      "mod": 8536,
      "spec": 8537,
      "Ġtrophy": 8538,
      "Ġacknow": 8539,
      "reams": 8540,
      "itely": 8541,
      "Ġhat": 8542,
      "Ġlie": 8543,
      "ĠSn": 8544,
      "ĠSel": 8545,
      "Ġreward": 8546,
      "ĠCa": 8547,
      "ĠCape": 8548,
      "ĠPand": 8549,
      "ĠPuerto": 8550,
      "heric": 8551,
      "ĠHerm": 8552,
      "ĠFal": 8553,
      "ĠFamily": 8554,
      "avers": 8555,
      "ĠRang": 8556,
      "ĠRings": 8557,
      "ĠNaz": 8558,
      "ĠLady": 8559,
      "ĠExt": 8560,
      "quer": 8561,
      "sea": 8562,
      "geon": 8563,
      "ogen": 8564,
      "Ġshore": 8565,
      "Ġkill": 8566,
      "iper": 8567,
      "Ġnotice": 8568,
      "ibet": 8569,
      "ĠHead": 8570,
      "Ġdisappe": 8571,
      "Ġdesert": 8572,
      "Ġgenus": 8573,
      "Ġmanip": 8574,
      "rosse": 8575,
      "Ġhelpful": 8576,
      "Ġartistic": 8577,
      "Ġmonitor": 8578,
      "Ġtopics": 8579,
      "Ġpowered": 8580,
      "Ġwriters": 8581,
      "Ġsolved": 8582,
      "Ġperformances": 8583,
      "odynam": 8584,
      "Ġoperate": 8585,
      "Ã©e": 8586,
      "Ġeditor": 8587,
      "Ġparagraphs": 8588,
      "shire": 8589,
      "ĠFinal": 8590,
      "ĠGuj": 8591,
      "ĠGuy": 8592,
      "Station": 8593,
      "Ġenjoyed": 8594,
      "ĠHeritage": 8595,
      "Ġsupervised": 8596,
      "Ġhistorians": 8597,
      "Ġcrust": 8598,
      "Ġfunding": 8599,
      "Ġbullets": 8600,
      "Ġroutes": 8601,
      "Ġargument": 8602,
      "Ġsubjects": 8603,
      "Ġpersist": 8604,
      "Ġcleaning": 8605,
      "century": 8606,
      "ĠMaryland": 8607,
      "ĠAuthor": 8608,
      "Ġbranches": 8609,
      "ĠEngineering": 8610,
      "Ġdeployed": 8611,
      "Ġcontroversial": 8612,
      "Ġsubsid": 8613,
      "ĠObama": 8614,
      "ĠMalaysia": 8615,
      "Ġinequality": 8616,
      "ĠSecretary": 8617,
      "ifferent": 8618,
      "81": 8619,
      "94": 8620,
      "But": 8621,
      "EA": 8622,
      "Fin": 8623,
      "German": 8624,
      "boh": 8625,
      "iability": 8626,
      "tail": 8627,
      "Ã¤": 8628,
      "heim": 8629,
      "incess": 8630,
      "Ġwalls": 8631,
      "iture": 8632,
      "itarian": 8633,
      "Ġpig": 8634,
      "Ġtopped": 8635,
      "omer": 8636,
      "ĠSix": 8637,
      "ĠTampa": 8638,
      "ĠAcc": 8639,
      "eting": 8640,
      "olia": 8641,
      "ĠCzech": 8642,
      "Ġyeast": 8643,
      "agers": 8644,
      "ĠGulf": 8645,
      "ĠRoc": 8646,
      "oples": 8647,
      "ĠEle": 8648,
      "ĠEqu": 8649,
      "abama": 8650,
      "Ġhearing": 8651,
      "ĠUP": 8652,
      "uda": 8653,
      "apor": 8654,
      "apers": 8655,
      "Ġenables": 8656,
      "Ġroof": 8657,
      "Ġtwelve": 8658,
      "orney": 8659,
      "ĠAmericas": 8660,
      "obally": 8661,
      "Ġagency": 8662,
      "Ġmodified": 8663,
      "Ġregulation": 8664,
      "Ġlisten": 8665,
      "Ġdecrease": 8666,
      "iented": 8667,
      "connect": 8668,
      "athers": 8669,
      "Ġarticles": 8670,
      "Ġsupports": 8671,
      "ĠZe": 8672,
      "Ġdesigns": 8673,
      "ĠAdam": 8674,
      "Ġbroke": 8675,
      "ĠHoward": 8676,
      "Ġmultinational": 8677,
      "Ġcompeting": 8678,
      "Ġadvoc": 8679,
      "anned": 8680,
      "Ġbeneficial": 8681,
      "Ġsouthwest": 8682,
      "Ġrisks": 8683,
      "Ġconsisted": 8684,
      "Ġconsistency": 8685,
      "Ġtends": 8686,
      "Ġsequencing": 8687,
      "ĠNetflix": 8688,
      "Ġfrequent": 8689,
      "ĠHollywood": 8690,
      "Ġvarying": 8691,
      "Ġpowder": 8692,
      "Ġfeedback": 8693,
      "Ġshooting": 8694,
      "ĠUsing": 8695,
      "Ġparameter": 8696,
      "onymous": 8697,
      "Ġtheorem": 8698,
      "FO": 8699,
      "IA": 8700,
      "NT": 8701,
      "Qu": 8702,
      "South": 8703,
      "do": 8704,
      "dough": 8705,
      "nut": 8706,
      "note": 8707,
      "source": 8708,
      "Äĩ": 8709,
      "Ġton": 8710,
      "Ġaired": 8711,
      "erts": 8712,
      "aline": 8713,
      "alore": 8714,
      "alities": 8715,
      "ouch": 8716,
      "oured": 8717,
      "Ġdensity": 8718,
      "Ġhub": 8719,
      "Ġreven": 8720,
      "ĠTarg": 8721,
      "ĠTrophy": 8722,
      "ctors": 8723,
      "olve": 8724,
      "lyn": 8725,
      "ĠMill": 8726,
      "iri": 8727,
      "ĠBan": 8728,
      "ĠBrand": 8729,
      "Ġyards": 8730,
      "ĠPick": 8731,
      "ĠPlease": 8732,
      "ĠHo": 8733,
      "ĠHon": 8734,
      "ĠHay": 8735,
      "ums": 8736,
      "ĠFalls": 8737,
      "Ġcong": 8738,
      "ĠDer": 8739,
      "ĠWhere": 8740,
      "andon": 8741,
      "Ġvoted": 8742,
      "ĠOk": 8743,
      "aste": 8744,
      "Ġcompounds": 8745,
      "Ġabund": 8746,
      "Ġspots": 8747,
      "Ġenable": 8748,
      "Ġknife": 8749,
      "Ġraw": 8750,
      "Ġracial": 8751,
      "2012": 8752,
      "Ġinterface": 8753,
      "Ġinterpret": 8754,
      "Ġrepet": 8755,
      "ĠMarathon": 8756,
      "Ġconsidering": 8757,
      "Ġmonetary": 8758,
      "Ġreleases": 8759,
      "ĠProgram": 8760,
      "Ã©mon": 8761,
      "Ġsummit": 8762,
      "Ġhumanity": 8763,
      "thew": 8764,
      "Ġsuccessor": 8765,
      "Ġballs": 8766,
      "ĠOnly": 8767,
      "clusion": 8768,
      "2009": 8769,
      "ĠAugusta": 8770,
      "Ġtelephone": 8771,
      "Ġwinds": 8772,
      "Ġwindow": 8773,
      "Ġcivilization": 8774,
      "Ġconsumers": 8775,
      "Ġvacuum": 8776,
      "Ġfacilities": 8777,
      "ĠAbd": 8778,
      "ĠAntar": 8779,
      "ĠMilan": 8780,
      "Ġrotation": 8781,
      "Ġcommittee": 8782,
      "leveland": 8783,
      "finals": 8784,
      "ĠHyder": 8785,
      "Ġruled": 8786,
      "Ġethnic": 8787,
      "ĠToronto": 8788,
      "ĠPokÃ©mon": 8789,
      "Ġstrategies": 8790,
      "bourne": 8791,
      "%)[/": 8792,
      "Ġopinion": 8793,
      "Ġenabling": 8794,
      "ĠVictoria": 8795,
      "ĠMcDonald": 8796,
      "apolis": 8797,
      "\").": 8798,
      "%),": 8799,
      "52": 8800,
      "Eng": 8801,
      "Fl": 8802,
      "French": 8803,
      "PU": 8804,
      "Sl": 8805,
      "bu": 8806,
      "electric": 8807,
      "iac": 8808,
      "produ": 8809,
      "riger": 8810,
      "tics": 8811,
      "Ġcable": 8812,
      "esides": 8813,
      "alo": 8814,
      "Ġfinger": 8815,
      "Ġfrozen": 8816,
      "Ġborrow": 8817,
      "ashed": 8818,
      "Ġtot": 8819,
      "Ġloud": 8820,
      "style": 8821,
      "ĠSar": 8822,
      "ĠSaudi": 8823,
      "Ġrect": 8824,
      "Ġreaches": 8825,
      "ĠTog": 8826,
      "ĠTurn": 8827,
      "ether": 8828,
      "Ġgains": 8829,
      "olar": 8830,
      "ollo": 8831,
      "lys": 8832,
      "ĠPra": 8833,
      "ĠHindi": 8834,
      "Ġalign": 8835,
      "Ġalphabet": 8836,
      "verning": 8837,
      "ĠFree": 8838,
      "ĠGil": 8839,
      "ĠGun": 8840,
      "ĠGPT": 8841,
      "ĠDue": 8842,
      "Ġvess": 8843,
      "ĠEric": 8844,
      "Ġrig": 8845,
      "quet": 8846,
      "ĠJan": 8847,
      "Ġplug": 8848,
      "ĠUr": 8849,
      "asts": 8850,
      "apest": 8851,
      "Ġworst": 8852,
      "Ġwheels": 8853,
      "irector": 8854,
      "Ġtraits": 8855,
      "Ġtracks": 8856,
      "Ġcoal": 8857,
      "Ġspeakers": 8858,
      "Ġserious": 8859,
      "ensions": 8860,
      "Ġboats": 8861,
      "Ġbug": 8862,
      "Ġaccident": 8863,
      "Ġcenters": 8864,
      "Ġreliable": 8865,
      "ugby": 8866,
      "Ġfinishing": 8867,
      "Ġmush": 8868,
      "ĠDec": 8869,
      "ĠDepending": 8870,
      "Ġhelium": 8871,
      "vengers": 8872,
      "ĠShah": 8873,
      "Ġrunners": 8874,
      "Ġcurve": 8875,
      "ĠAny": 8876,
      "airy": 8877,
      "rossing": 8878,
      "print": 8879,
      "Ġoperates": 8880,
      "ĠProfess": 8881,
      "ĠBeck": 8882,
      "Ġdetail": 8883,
      "Ġexplos": 8884,
      "Ġexplored": 8885,
      "Ġrestricted": 8886,
      "Ġapproved": 8887,
      "comp": 8888,
      "anny": 8889,
      "Ġordered": 8890,
      "ĠTele": 8891,
      "Ġconnecting": 8892,
      "ĠBarcelona": 8893,
      "Ġcycl": 8894,
      "Ġputting": 8895,
      "Ġscientist": 8896,
      "Ġtowns": 8897,
      "Ġpanels": 8898,
      "Ġcopy": 8899,
      "Ġmagical": 8900,
      "writing": 8901,
      "Ġimplementation": 8902,
      "Ġincreasingly": 8903,
      "Ġobservation": 8904,
      "Ġsettled": 8905,
      "Ġoccupied": 8906,
      "Ġteaching": 8907,
      "Ġwickets": 8908,
      "ĠOrganization": 8909,
      "Ġadventure": 8910,
      "Ġflavors": 8911,
      "Ġfleet": 8912,
      "ĠMessi": 8913,
      "ĠGrammy": 8914,
      "ĠMunich": 8915,
      "Ġhemisphere": 8916,
      "ĠPatriots": 8917,
      "ĠLewis": 8918,
      "ĠShanghai": 8919,
      "ennessee": 8920,
      "++": 8921,
      "54": 8922,
      "83": 8923,
      "Col": 8924,
      "DI": 8925,
      "LP": 8926,
      "Open": 8927,
      "])": 8928,
      "free": 8929,
      "iw": 8930,
      "pa": 8931,
      "then": 8932,
      "walk": 8933,
      "yard": 8934,
      "zed": 8935,
      "Êĥ": 8936,
      "Ġvert": 8937,
      "Ġtries": 8938,
      "Ġtried": 8939,
      "inth": 8940,
      "isco": 8941,
      "Ġcoc": 8942,
      "Ġwines": 8943,
      "Ġpour": 8944,
      "ingly": 8945,
      "Ġdynasty": 8946,
      "ĠTal": 8947,
      "ĠTry": 8948,
      "uses": 8949,
      "ĠISO": 8950,
      "irth": 8951,
      "ĠBiden": 8952,
      "Ġstatic": 8953,
      "uls": 8954,
      "ĠPit": 8955,
      "ĠPGA": 8956,
      "ĠPearl": 8957,
      "estine": 8958,
      "estone": 8959,
      "agram": 8960,
      "emen": 8961,
      "ĠFle": 8962,
      "ĠDallas": 8963,
      "aved": 8964,
      "ĠRoss": 8965,
      "ĠNHL": 8966,
      "ĠLiang": 8967,
      "ĠErn": 8968,
      "Ġring": 8969,
      "see": 8970,
      "season": 8971,
      "Ġcomplic": 8972,
      "mental": 8973,
      "outs": 8974,
      "duction": 8975,
      "oked": 8976,
      "lude": 8977,
      "ignon": 8978,
      "orsche": 8979,
      "wealth": 8980,
      "oba": 8981,
      "onsin": 8982,
      "ifications": 8983,
      "Ġacres": 8984,
      "Ġhumid": 8985,
      "Ġentering": 8986,
      "afael": 8987,
      "Ġrelevant": 8988,
      "nergy": 8989,
      "risket": 8990,
      "ventions": 8991,
      "Ġengage": 8992,
      "ĠBlood": 8993,
      "ĠBeijing": 8994,
      "Ġlasted": 8995,
      "plete": 8996,
      "Ġheads": 8997,
      "Ġcourts": 8998,
      "Ġdelay": 8999,
      "Ġcamping": 9000,
      "Ġbias": 9001,
      "ommod": 9002,
      "ĠTwitter": 9003,
      "Ġappearing": 9004,
      "ĠMedal": 9005,
      "Ġcommunications": 9006,
      "Ġcomplexity": 9007,
      "Ġelectronics": 9008,
      "Ġcutting": 9009,
      "Ġmechanism": 9010,
      "Ġemergency": 9011,
      "ĠBrazilian": 9012,
      "Ġquantity": 9013,
      "Ġtargeted": 9014,
      "Ġerup": 9015,
      "ĠMahar": 9016,
      "Ġabsol": 9017,
      "Ġcampaigns": 9018,
      "Ġgarlic": 9019,
      "ĠJustice": 9020,
      "ĠDenver": 9021,
      "ĠBetween": 9022,
      "Ġsculptor": 9023,
      "Ġstimul": 9024,
      "ĠMLB": 9025,
      "Ġdataset": 9026,
      "Ġsubstantial": 9027,
      "founder": 9028,
      "Ġmurder": 9029,
      "56": 9030,
      "Cont": 9031,
      "Files": 9032,
      "OO": 9033,
      "Since": 9034,
      "ii": 9035,
      "ko": 9036,
      "krit": 9037,
      "nai": 9038,
      "worth": 9039,
      "Ã¦": 9040,
      "Ġtag": 9041,
      "hered": 9042,
      "herent": 9043,
      "Ġtheories": 9044,
      "Ġsle": 9045,
      "atial": 9046,
      "Ġwed": 9047,
      "anon": 9048,
      "Ġfiles": 9049,
      "aration": 9050,
      "Ġbars": 9051,
      "Ġpump": 9052,
      "Ġpounds": 9053,
      "olo": 9054,
      "ĠCorn": 9055,
      "rac": 9056,
      "otten": 9057,
      "igm": 9058,
      "uru": 9059,
      "ĠMaur": 9060,
      "ĠPas": 9061,
      "ĠHold": 9062,
      "ĠHimal": 9063,
      "agu": 9064,
      "eman": 9065,
      "ĠFund": 9066,
      "ĠGab": 9067,
      "ĠRoy": 9068,
      "osc": 9069,
      "osal": 9070,
      "acrosse": 9071,
      "Ġexceed": 9072,
      "Ġchrom": 9073,
      "Ġcharts": 9074,
      "Ġshocks": 9075,
      "Ġshops": 9076,
      "ĠStev": 9077,
      "Ġabandon": 9078,
      "Ġcoat": 9079,
      "Ġ37": 9080,
      "Ġpeoples": 9081,
      "Ġconsoles": 9082,
      "aware": 9083,
      "awks": 9084,
      "Ġindigenous": 9085,
      "Ġinvention": 9086,
      "Ġassistance": 9087,
      "Ġgenerating": 9088,
      "Ġexpressed": 9089,
      "arma": 9090,
      "Ġbattles": 9091,
      "Ġexploration": 9092,
      "Ġanimated": 9093,
      "Ġopposition": 9094,
      "ĠHarrison": 9095,
      "comes": 9096,
      "Ġpotentially": 9097,
      "Ġ1936": 9098,
      "scale": 9099,
      "ĠGuard": 9100,
      "Star": 9101,
      "ĠCups": 9102,
      "atching": 9103,
      "Ġcalm": 9104,
      "Ġchoices": 9105,
      "ippi": 9106,
      "Ġpatient": 9107,
      "Ġcycling": 9108,
      "ĠAssembly": 9109,
      "Ġcircuits": 9110,
      "Ġcreatures": 9111,
      "Ġpayments": 9112,
      "ĠMalay": 9113,
      "Ġbatteries": 9114,
      "Ġmassive": 9115,
      "evin": 9116,
      "Ġparticipants": 9117,
      "Ġreasoning": 9118,
      "Ġdrying": 9119,
      "Ġqualified": 9120,
      "Ġpreferences": 9121,
      "Ġlifetime": 9122,
      "ĠSupp": 9123,
      "ĠCampbell": 9124,
      "isconsin": 9125,
      "Ġefficiently": 9126,
      "Ġtruck": 9127,
      "ĠNadu": 9128,
      "Ġcorrectly": 9129,
      "Ġpursue": 9130,
      "Ġconversation": 9131,
      "Ġmortg": 9132,
      "ĠUCLA": 9133,
      "Ġdynamic": 9134,
      "ĠSoftware": 9135,
      "Ġtribes": 9136,
      "Ġsteady": 9137,
      "Ġromantic": 9138,
      "Ġtroops": 9139,
      "Ġroyal": 9140,
      "ĠMesopotamia": 9141,
      "Ġjuris": 9142,
      "Ġhusband": 9143,
      "?\"": 9144,
      "ED": 9145,
      "Im": 9146,
      "Mus": 9147,
      "Sec": 9148,
      "Vol": 9149,
      "WS": 9150,
      "],": 9151,
      "fly": 9152,
      "grossing": 9153,
      "mail": 9154,
      "Ð¸": 9155,
      "á»": 9156,
      "Ġtiss": 9157,
      "Ġtank": 9158,
      "Ġtaught": 9159,
      "inated": 9160,
      "Ġsa": 9161,
      "esis": 9162,
      "esium": 9163,
      "anne": 9164,
      "itational": 9165,
      "Ġpure": 9166,
      "Ġpink": 9167,
      "Ġlighter": 9168,
      "elines": 9169,
      "ĠSav": 9170,
      "ĠTax": 9171,
      "Ġnitrogen": 9172,
      "ĠCA": 9173,
      "Ġforget": 9174,
      "ĠPress": 9175,
      "Ġanthrop": 9176,
      "ĠFender": 9177,
      "ĠDod": 9178,
      "ĠRun": 9179,
      "ĠRest": 9180,
      "ĠRab": 9181,
      "ĠRoll": 9182,
      "ĠWell": 9183,
      "Ġatoms": 9184,
      "Ġ1918": 9185,
      "Ġsup": 9186,
      "ĠUlt": 9187,
      "apse": 9188,
      "Ġshaped": 9189,
      "mentation": 9190,
      "Ġclar": 9191,
      "oku": 9192,
      "ĠUnlike": 9193,
      "ĠYan": 9194,
      "phones": 9195,
      "Ġconsume": 9196,
      "Ġpret": 9197,
      "ĠAlabama": 9198,
      "aws": 9199,
      "Ġacclaim": 9200,
      "issance": 9201,
      "issippi": 9202,
      "Ġpopularized": 9203,
[...]
